<pad>	0
<unk>	0
<sos>	0
<eos>	0
▁(	-0
▁)	-1
ar	-2
arg	-3
▁arg	-4
▁;	-5
on	-6
▁.	-7
in	-8
ti	-9
▁{	-10
▁}	-11
et	-12
tion	-13
▁f	-14
▁l	-15
nc	-16
oc	-17
unc	-18
unction	-19
▁function	-20
▁loc	-21
rin	-22
ur	-23
▁r	-24
er	-25
urn	-26
eturn	-27
▁return	-28
▁,	-29
ring	-30
tring	-31
▁=	-32
▁S	-33
is	-34
le	-35
▁t	-36
▁n	-37
te	-38
▁String	-39
id	-40
▁v	-41
al	-42
or	-43
oid	-44
es	-45
▁void	-46
en	-47
▁g	-48
▁th	-49
▁get	-50
an	-51
▁in	-52
▁this	-53
ul	-54
at	-55
▁c	-56
▁s	-57
▁int	-58
ew	-59
if	-60
ec	-61
▁new	-62
as	-63
▁<	-64
ull	-65
▁if	-66
string	-67
rini	-68
▁"	-69
srini	-70
▁>	-71
▁b	-72
▁null	-73
ce	-74
am	-75
ent	-76
ro	-77
▁C	-78
In	-79
oo	-80
▁+	-81
▁[	-82
▁]	-83
▁m	-84
ate	-85
▁p	-86
ad	-87
ap	-88
el	-89
re	-90
se	-91
ac	-92
▁d	-93
lean	-94
oolean	-95
ut	-96
od	-97
ist	-98
ect	-99
it	-100
▁0	-101
▁T	-102
ble	-103
ue	-104
▁L	-105
▁boolean	-106
ag	-107
ass	-108
Ex	-109
▁==	-110
ri	-111
ject	-112
ption	-113
▁!	-114
om	-115
il	-116
▁fin	-117
▁O	-118
St	-119
ed	-120
▁A	-121
yp	-122
ou	-123
▁P	-124
▁M	-125
ess	-126
ay	-127
bject	-128
st	-129
ex	-130
▁final	-131
▁D	-132
Con	-133
ation	-134
ame	-135
ype	-136
Re	-137
▁B	-138
ol	-139
ment	-140
▁I	-141
▁tr	-142
ter	-143
ing	-144
ong	-145
able	-146
▁1	-147
ch	-148
ception	-149
Exception	-150
iz	-151
▁!=	-152
qu	-153
ic	-154
▁set	-155
ile	-156
Res	-157
lass	-158
im	-159
av	-160
ig	-161
▁Object	-162
erv	-163
lo	-164
der	-165
▁F	-166
▁for	-167
yte	-168
ert	-169
th	-170
age	-171
▁re	-172
nt	-173
Name	-174
nce	-175
Type	-176
ode	-177
▁:	-178
rr	-179
▁ad	-180
▁j	-181
row	-182
ion	-183
▁long	-184
▁E	-185
▁e	-186
ava	-187
▁In	-188
▁add	-189
ang	-190
est	-191
alue	-192
▁List	-193
tem	-194
nd	-195
og	-196
▁w	-197
Bu	-198
up	-199
List	-200
eng	-201
▁to	-202
▁java	-203
▁-	-204
end	-205
ength	-206
alse	-207
ata	-208
ult	-209
Id	-210
▁ap	-211
ice	-212
um	-213
ouble	-214
▁N	-215
tex	-216
Pro	-217
▁is	-218
String	-219
▁_	-220
ers	-221
▁false	-222
rray	-223
▁throw	-224
text	-225
ize	-226
▁?	-227
atch	-228
Serv	-229
▁R	-230
ger	-231
▁U	-232
ff	-233
pl	-234
▁length	-235
▁h	-236
▁st	-237
ort	-238
ext	-239
us	-240
til	-241
ory	-242
▁&	-243
▁con	-244
▁byte	-245
▁true	-246
ve	-247
▁V	-248
ance	-249
ey	-250
▁H	-251
ator	-252
als	-253
▁o	-254
our	-255
ction	-256
▁com	-257
and	-258
ilder	-259
▁double	-260
act	-261
ream	-262
ath	-263
per	-264
put	-265
▁el	-266
ain	-267
ack	-268
To	-269
quals	-270
ime	-271
▁else	-272
tt	-273
stance	-274
ir	-275
Service	-276
▁ass	-277
▁J	-278
▁++	-279
un	-280
ase	-281
ot	-282
▁assert	-283
▁ch	-284
orm	-285
pend	-286
Value	-287
▁Con	-288
Map	-289
ace	-290
ource	-291
ON	-292
Stream	-293
ach	-294
ock	-295
Context	-296
bu	-297
Key	-298
▁lang	-299
teger	-300
pt	-301
ress	-302
▁append	-303
ys	-304
ten	-305
Ch	-306
Par	-307
essage	-308
os	-309
Builder	-310
ser	-311
ub	-312
ER	-313
vent	-314
▁try	-315
▁G	-316
Tr	-317
▁&&	-318
▁Class	-319
lement	-320
ted	-321
pon	-322
ry	-323
Set	-324
▁St	-325
loat	-326
esc	-327
ef	-328
Result	-329
ystem	-330
▁Array	-331
▁catch	-332
ow	-333
▁File	-334
quest	-335
▁getC	-336
Time	-337
reate	-338
ount	-339
▁|	-340
▁toString	-341
fig	-342
art	-343
Data	-344
ax	-345
▁Integer	-346
▁size	-347
ader	-348
em	-349
ord	-350
ash	-351
▁*	-352
Object	-353
fo	-354
▁float	-355
Util	-356
▁ex	-357
ffer	-358
lection	-359
rint	-360
ity	-361
▁2	-362
▁put	-363
State	-364
▁Col	-365
isten	-366
ument	-367
ver	-368
▁equals	-369
Request	-370
putStream	-371
▁log	-372
ache	-373
eri	-374
actory	-375
Com	-376
▁create	-377
mo	-378
urr	-379
odel	-380
ition	-381
ection	-382
ale	-383
anag	-384
oin	-385
op	-386
ans	-387
▁Map	-388
urrent	-389
File	-390
ure	-391
dex	-392
▁k	-393
atus	-394
AT	-395
▁System	-396
▁||	-397
iter	-398
Element	-399
ribu	-400
all	-401
ll	-402
▁u	-403
ine	-404
Array	-405
Factory	-406
▁ArrayList	-407
iew	-408
Event	-409
li	-410
▁print	-411
Of	-412
rite	-413
Ar	-414
Ad	-415
En	-416
▁Bu	-417
Info	-418
Manag	-419
LE	-420
leg	-421
ct	-422
Message	-423
eck	-424
▁par	-425
00	-426
▁W	-427
IN	-428
Manager	-429
tif	-430
ribute	-431
▁remo	-432
Desc	-433
ault	-434
Qu	-435
Listen	-436
▁class	-437
ore	-438
OR	-439
lu	-440
▁value	-441
Instance	-442
▁@	-443
ab	-444
ail	-445
▁X	-446
Resource	-447
▁or	-448
tain	-449
eld	-450
Se	-451
▁remove	-452
ID	-453
pert	-454
ponse	-455
ield	-456
tent	-457
perty	-458
Node	-459
fer	-460
efault	-461
ber	-462
▁x	-463
Loc	-464
▁write	-465
tim	-466
tit	-467
ties	-468
▁instance	-469
▁Collection	-470
Null	-471
▁Re	-472
▁Pro	-473
nection	-474
par	-475
erial	-476
Arg	-477
▁lif	-478
Buffer	-479
Param	-480
▁next	-481
▁out	-482
ast	-483
Code	-484
▁Date	-485
Config	-486
ST	-487
eray	-488
▁liferay	-489
nal	-490
ttp	-491
legal	-492
▁name	-493
llegal	-494
oint	-495
ntry	-496
ange	-497
Response	-498
ild	-499
▁bu	-500
Path	-501
Inter	-502
▁Illegal	-503
ession	-504
▁Th	-505
▁>=	-506
Item	-507
▁type	-508
ery	-509
ip	-510
▁sh	-511
▁util	-512
tic	-513
fere	-514
roup	-515
nel	-516
ken	-517
Listener	-518
gin	-519
▁getS	-520
read	-521
tive	-522
ss	-523
Met	-524
one	-525
Im	-526
▁id	-527
Class	-528
ttribute	-529
▁res	-530
ean	-531
ME	-532
lient	-533
▁getA	-534
ith	-535
▁read	-536
Byte	-537
Count	-538
▁de	-539
Argument	-540
igh	-541
▁org	-542
AR	-543
uration	-544
Out	-545
ple	-546
alid	-547
ication	-548
OG	-549
ector	-550
▁port	-551
ncod	-552
lose	-553
Add	-554
alu	-555
of	-556
hod	-557
▁Log	-558
Utils	-559
mpt	-560
tity	-561
▁start	-562
▁char	-563
cc	-564
ler	-565
ask	-566
Date	-567
time	-568
umber	-569
▁pro	-570
mpty	-571
▁getP	-572
▁Long	-573
sion	-574
Wr	-575
str	-576
▁current	-577
▁Com	-578
ary	-579
ription	-580
▁'	-581
gist	-582
Query	-583
ost	-584
▁>>	-585
ync	-586
▁check	-587
Equals	-588
▁StringBuilder	-589
▁K	-590
ev	-591
ind	-592
▁wh	-593
▁LOG	-594
Hand	-595
RE	-596
Property	-597
Size	-598
lock	-599
▁instanceof	-600
out	-601
▁Ch	-602
Form	-603
port	-604
ames	-605
AL	-606
rror	-607
RI	-608
▁model	-609
▁i	-610
ard	-611
izer	-612
let	-613
▁assertEquals	-614
ln	-615
▁+=	-616
Th	-617
▁has	-618
▁println	-619
ule	-620
All	-621
▁ax	-622
ener	-623
▁Boolean	-624
▁contain	-625
SON	-626
▁getName	-627
ork	-628
▁Ex	-629
lugin	-630
User	-631
Col	-632
otNull	-633
Address	-634
Un	-635
eter	-636
form	-637
ight	-638
alues	-639
▁IllegalArgument	-640
▁axis	-641
ant	-642
.0	-643
▁while	-644
Log	-645
ier	-646
Status	-647
vid	-648
Int	-649
ncoding	-650
Index	-651
▁portal	-652
ized	-653
ersion	-654
▁apache	-655
▁ac	-656
aw	-657
uth	-658
Group	-659
ilter	-660
▁data	-661
perties	-662
que	-663
View	-664
▁getD	-665
▁Set	-666
ference	-667
▁Exception	-668
▁Type	-669
▁se	-670
date	-671
▁contains	-672
AX	-673
Lo	-674
lear	-675
ponent	-676
▁Tr	-677
Format	-678
▁Http	-679
set	-680
Entry	-681
▁close	-682
pace	-683
..	-684
▁...	-685
err	-686
ill	-687
ender	-688
▁3	-689
By	-690
rom	-691
With	-692
▁Run	-693
▁clear	-694
▁sub	-695
Field	-696
▁Hash	-697
Sc	-698
Local	-699
ign	-700
RL	-701
ink	-702
SE	-703
TE	-704
ound	-705
FF	-706
He	-707
▁JSON	-708
ml	-709
Token	-710
▁Byte	-711
▁case	-712
ete	-713
alend	-714
▁form	-715
ndle	-716
Pre	-717
Trans	-718
▁un	-719
Empty	-720
▁y	-721
ernel	-722
Next	-723
ION	-724
bug	-725
lic	-726
SS	-727
roc	-728
▁Math	-729
▁getClass	-730
vider	-731
AN	-732
rap	-733
Writer	-734
▁format	-735
ix	-736
ao	-737
Text	-738
Handler	-739
ree	-740
alendar	-741
▁kernel	-742
ocket	-743
osition	-744
Rec	-745
ak	-746
ron	-747
res	-748
erializer	-749
ML	-750
▁err	-751
CE	-752
rid	-753
▁getService	-754
erm	-755
▁Serv	-756
Table	-757
ative	-758
press	-759
True	-760
Attribute	-761
Client	-762
▁state	-763
▁key	-764
▁parse	-765
yn	-766
▁ar	-767
Error	-768
terator	-769
eb	-770
uct	-771
▁encoding	-772
NT	-773
▁hash	-774
▁Node	-775
ite	-776
ool	-777
tiv	-778
orted	-779
ings	-780
rowable	-781
▁Double	-782
▁State	-783
back	-784
▁Un	-785
pos	-786
▁Data	-787
IT	-788
ript	-789
Loader	-790
▁map	-791
user	-792
DE	-793
▁del	-794
Connection	-795
▁Throwable	-796
abel	-797
Sh	-798
red	-799
▁max	-800
▁getB	-801
▁assertTrue	-802
anc	-803
Action	-804
ook	-805
▁he	-806
▁logger	-807
arget	-808
▁Context	-809
Method	-810
▁isEmpty	-811
lect	-812
ocument	-813
NA	-814
odif	-815
tend	-816
peration	-817
reg	-818
▁IO	-819
evel	-820
rocess	-821
▁InputStream	-822
Bytes	-823
▁getM	-824
▁up	-825
ute	-826
Sp	-827
Up	-828
VE	-829
rim	-830
Dir	-831
▁sync	-832
Source	-833
On	-834
ateg	-835
▁User	-836
ob	-837
▁Ass	-838
For	-839
not	-840
▁Big	-841
Parameter	-842
▁pre	-843
▁4	-844
Or	-845
ynam	-846
aces	-847
▁<=	-848
▁Q	-849
abled	-850
ccess	-851
▁En	-852
arch	-853
▁Time	-854
▁getL	-855
hron	-856
And	-857
mand	-858
ynamic	-859
raph	-860
Content	-861
▁DE	-862
▁default	-863
▁Path	-864
▁my	-865
action	-866
Case	-867
LocalService	-868
▁debug	-869
▁error	-870
irst	-871
sh	-872
umn	-873
UE	-874
OU	-875
Number	-876
Provider	-877
Version	-878
ge	-879
ptions	-880
low	-881
▁Resource	-882
ublic	-883
Hel	-884
▁Builder	-885
Call	-886
▁find	-887
▁IN	-888
▁en	-889
Iden	-890
iable	-891
▁Null	-892
▁Runtime	-893
ray	-894
oot	-895
stant	-896
UL	-897
ly	-898
imple	-899
▁run	-900
Model	-901
▁Par	-902
▁Loc	-903
Change	-904
AG	-905
opy	-906
ported	-907
▁user	-908
PE	-909
ud	-910
At	-911
hronized	-912
tro	-913
De	-914
▁Message	-915
▁last	-916
luginResult	-917
▁index	-918
idth	-919
▁hashCode	-920
nnot	-921
otif	-922
▁extend	-923
▁getInstance	-924
▁synchronized	-925
pression	-926
▁<<	-927
▁Met	-928
cept	-929
Stack	-930
upported	-931
plication	-932
older	-933
xy	-934
pare	-935
▁Config	-936
Dec	-937
▁Im	-938
itor	-939
ature	-940
▁delete	-941
▁IOException	-942
Configuration	-943
▁end	-944
Unit	-945
ial	-946
pen	-947
tial	-948
amespace	-949
NAME	-950
▁getR	-951
escription	-952
▁a	-953
bs	-954
own	-955
▁extends	-956
▁col	-957
▁getValue	-958
Test	-959
dition	-960
ynamicQuery	-961
az	-962
icate	-963
Reader	-964
▁Collections	-965
▁update	-966
ust	-967
Helper	-968
▁dao	-969
Reference	-970
ark	-971
Impl	-972
▁XML	-973
andom	-974
Bean	-975
face	-976
▁xml	-977
Thread	-978
Line	-979
Entity	-980
atcher	-981
▁array	-982
oad	-983
ated	-984
Render	-985
illis	-986
▁context	-987
Cache	-988
▁Assert	-989
word	-990
Regist	-991
▁typeDesc	-992
▁Faces	-993
▁values	-994
Session	-995
▁Vector	-996
▁Thread	-997
InputStream	-998
Enabled	-999
▁getF	-1000
▁at	-1001
▁min	-1002
Operation	-1003
aint	-1004
▁Trans	-1005
TY	-1006
Auth	-1007
Socket	-1008
▁Sh	-1009
ping	-1010
Image	-1011
Server	-1012
Component	-1013
▁Calendar	-1014
FA	-1015
▁serv	-1016
enerator	-1017
ATE	-1018
place	-1019
▁sc	-1020
yle	-1021
play	-1022
▁javax	-1023
olic	-1024
tifier	-1025
▁short	-1026
MP	-1027
son	-1028
From	-1029
AXB	-1030
ution	-1031
ctiv	-1032
Tag	-1033
▁substring	-1034
Task	-1035
tal	-1036
ffset	-1037
Zone	-1038
▁hasNext	-1039
nnotation	-1040
sc	-1041
ush	-1042
▁Bean	-1043
▁exec	-1044
▁JAXB	-1045
▁inter	-1046
▁HashMap	-1047
rl	-1048
chem	-1049
econ	-1050
▁Char	-1051
Ap	-1052
ner	-1053
▁URL	-1054
▁Item	-1055
▁description	-1056
Properties	-1057
Host	-1058
tension	-1059
Millis	-1060
Point	-1061
rix	-1062
isplay	-1063
▁valid	-1064
▁Bundle	-1065
▁Iterator	-1066
ULT	-1067
CT	-1068
▁orm	-1069
gress	-1070
OutputStream	-1071
▁View	-1072
▁load	-1073
Filter	-1074
▁build	-1075
Ref	-1076
quence	-1077
RO	-1078
Vector	-1079
ole	-1080
▁iter	-1081
sWith	-1082
annel	-1083
▁Color	-1084
▁JAXBElement	-1085
efin	-1086
OS	-1087
atrix	-1088
▁Entry	-1089
sed	-1090
ypes	-1091
ecur	-1092
stants	-1093
▁replace	-1094
▁item	-1095
ql	-1096
its	-1097
tern	-1098
ayout	-1099
▁public	-1100
▁QName	-1101
As	-1102
parator	-1103
Interface	-1104
Identifier	-1105
Char	-1106
▁Out	-1107
▁send	-1108
ING	-1109
wit	-1110
▁as	-1111
umer	-1112
Project	-1113
▁Key	-1114
ov	-1115
SI	-1116
Resol	-1117
Renderer	-1118
Values	-1119
▁Event	-1120
Integer	-1121
Internal	-1122
▁am	-1123
assword	-1124
VEL	-1125
itial	-1126
ission	-1127
olicy	-1128
▁status	-1129
LI	-1130
Ed	-1131
Description	-1132
▁att	-1133
etail	-1134
▁namespace	-1135
ib	-1136
▁cl	-1137
Contro	-1138
NotNull	-1139
▁Connection	-1140
ply	-1141
▁--	-1142
EY	-1143
witch	-1144
val	-1145
▁file	-1146
verrid	-1147
cted	-1148
Block	-1149
Url	-1150
▁do	-1151
▁Simple	-1152
ternal	-1153
eed	-1154
air	-1155
posit	-1156
amp	-1157
FAULT	-1158
▁iterator	-1159
▁StringBuffer	-1160
arn	-1161
▁valueOf	-1162
Mode	-1163
uper	-1164
ies	-1165
riptor	-1166
ecurity	-1167
AD	-1168
oord	-1169
▁count	-1170
▁listen	-1171
ueue	-1172
▁param	-1173
▁Status	-1174
Names	-1175
ategory	-1176
Location	-1177
▁getCurrent	-1178
▁DynamicQuery	-1179
▁Uns	-1180
▁getId	-1181
gister	-1182
eters	-1183
base	-1184
odule	-1185
ermission	-1186
End	-1187
empl	-1188
load	-1189
attern	-1190
VAL	-1191
verride	-1192
FI	-1193
bstr	-1194
Options	-1195
Trace	-1196
▁info	-1197
Target	-1198
pository	-1199
otification	-1200
nces	-1201
efinition	-1202
Pl	-1203
▁100	-1204
emplate	-1205
▁PluginResult	-1206
mit	-1207
Port	-1208
Start	-1209
ities	-1210
System	-1211
▁5	-1212
Not	-1213
▁Se	-1214
▁al	-1215
▁getMessage	-1216
lag	-1217
Del	-1218
▁URI	-1219
LEVEL	-1220
tainer	-1221
▁message	-1222
ox	-1223
ustom	-1224
Al	-1225
Callback	-1226
odes	-1227
aders	-1228
Su	-1229
Level	-1230
lector	-1231
▁FacesContext	-1232
CH	-1233
TO	-1234
▁Session	-1235
CO	-1236
ie	-1237
ied	-1238
▁compare	-1239
URI	-1240
Long	-1241
▁test	-1242
ell	-1243
CON	-1244
▁Buffer	-1245
Length	-1246
ctivity	-1247
tings	-1248
Record	-1249
▁getEx	-1250
bstract	-1251
▁Request	-1252
Var	-1253
azon	-1254
inding	-1255
▁Test	-1256
▁internal	-1257
▁z	-1258
ages	-1259
▁config	-1260
eserializer	-1261
▁Result	-1262
▁Response	-1263
Spec	-1264
Descriptor	-1265
▁BigInteger	-1266
con	-1267
utable	-1268
▁Point	-1269
▁trans	-1270
Servlet	-1271
Color	-1272
ision	-1273
▁Unsupported	-1274
▁containsKey	-1275
ee	-1276
angle	-1277
ROR	-1278
Parser	-1279
▁Arrays	-1280
Sub	-1281
name	-1282
RA	-1283
ps	-1284
▁on	-1285
▁LOGLEVEL	-1286
Str	-1287
URL	-1288
ave	-1289
Http	-1290
imal	-1291
▁main	-1292
▁Service	-1293
StateException	-1294
Position	-1295
led	-1296
▁qu	-1297
adata	-1298
point	-1299
Access	-1300
fix	-1301
▁Ap	-1302
ayer	-1303
▁ser	-1304
tr	-1305
▁ur	-1306
▁To	-1307
▁getProperty	-1308
Tim	-1309
▁num	-1310
vir	-1311
ched	-1312
▁ent	-1313
▁Number	-1314
▁getString	-1315
ive	-1316
▁enc	-1317
Check	-1318
▁Method	-1319
▁Configuration	-1320
ility	-1321
ED	-1322
ish	-1323
▁Action	-1324
Track	-1325
ointer	-1326
▁dec	-1327
Detail	-1328
▁super	-1329
Lock	-1330
▁Text	-1331
ferences	-1332
▁total	-1333
▁amazon	-1334
Function	-1335
ulti	-1336
▁DEFAULT	-1337
ric	-1338
▁ST	-1339
▁im	-1340
Constr	-1341
▁Field	-1342
Progress	-1343
ont	-1344
reak	-1345
oordin	-1346
LA	-1347
ire	-1348
▁10	-1349
Order	-1350
▁request	-1351
lob	-1352
ram	-1353
raw	-1354
ller	-1355
lected	-1356
▁Abstract	-1357
nable	-1358
▁content	-1359
Run	-1360
ape	-1361
▁init	-1362
▁attribute	-1363
Queue	-1364
bserv	-1365
BU	-1366
LO	-1367
uto	-1368
TH	-1369
viron	-1370
Header	-1371
Constants	-1372
vironment	-1373
Definition	-1374
ke	-1375
map	-1376
ower	-1377
▁Default	-1378
▁session	-1379
Get	-1380
Pool	-1381
ackage	-1382
▁Value	-1383
ms	-1384
Input	-1385
Store	-1386
▁switch	-1387
ia	-1388
ian	-1389
rame	-1390
ected	-1391
▁from	-1392
▁getW	-1393
orage	-1394
▁getN	-1395
Generator	-1396
AP	-1397
ope	-1398
toc	-1399
Sequence	-1400
tocol	-1401
▁Nullable	-1402
▁Override	-1403
eature	-1404
▁accept	-1405
▁16	-1406
▁Or	-1407
Exec	-1408
▁time	-1409
ectory	-1410
▁Image	-1411
▁execute	-1412
ourc	-1413
Label	-1414
▁hand	-1415
upport	-1416
▁OutputStream	-1417
Types	-1418
ources	-1419
raphic	-1420
▁first	-1421
oun	-1422
ared	-1423
ertif	-1424
▁Rect	-1425
Command	-1426
aleo	-1427
evice	-1428
ccount	-1429
▁position	-1430
Vis	-1431
▁rec	-1432
ait	-1433
Valid	-1434
chema	-1435
StackTrace	-1436
tics	-1437
Hash	-1438
utor	-1439
apter	-1440
ersis	-1441
Process	-1442
▁Element	-1443
▁notNull	-1444
Resolver	-1445
▁Properties	-1446
ND	-1447
Child	-1448
terable	-1449
Comp	-1450
▁Rec	-1451
any	-1452
ick	-1453
ual	-1454
▁Uri	-1455
▁startsWith	-1456
Range	-1457
ounter	-1458
▁clone	-1459
▁element	-1460
ati	-1461
sor	-1462
Params	-1463
▁match	-1464
VALUE	-1465
▁buffer	-1466
▁native	-1467
bj	-1468
lust	-1469
omain	-1470
▁list	-1471
▁BundleContext	-1472
Mem	-1473
ren	-1474
Read	-1475
Style	-1476
acket	-1477
io	-1478
ning	-1479
ample	-1480
▁fail	-1481
▁fl	-1482
▁Non	-1483
Bound	-1484
acter	-1485
ments	-1486
▁prev	-1487
Output	-1488
▁result	-1489
Iterator	-1490
KEY	-1491
ries	-1492
Update	-1493
▁getKey	-1494
▁getType	-1495
ertificate	-1496
ZE	-1497
▁Sc	-1498
▁Inter	-1499
▁local	-1500
etw	-1501
iag	-1502
ous	-1503
▁apply	-1504
▁indexOf	-1505
Decimal	-1506
▁parent	-1507
gn	-1508
xff	-1509
NO	-1510
plo	-1511
Link	-1512
▁dis	-1513
▁cache	-1514
▁Document	-1515
ists	-1516
▁1.0	-1517
▁table	-1518
indow	-1519
▁client	-1520
af	-1521
▁Locale	-1522
▁addAll	-1523
▁SE	-1524
Policy	-1525
▁Ad	-1526
Page	-1527
▁6	-1528
▁filter	-1529
▁ByteBuffer	-1530
Base	-1531
▁exp	-1532
▁met	-1533
▁getTime	-1534
▁Iterable	-1535
▁connection	-1536
▁As	-1537
▁register	-1538
▁MAX	-1539
▁unm	-1540
luster	-1541
▁reset	-1542
▁NotNull	-1543
ake	-1544
erif	-1545
▁Option	-1546
aws	-1547
ncy	-1548
ody	-1549
ploy	-1550
▁Buffered	-1551
TimeMillis	-1552
▁Util	-1553
▁RE	-1554
▁Web	-1555
▁break	-1556
▁Rectangle	-1557
reen	-1558
riter	-1559
▁trim	-1560
Search	-1561
region	-1562
Pointer	-1563
▁stream	-1564
▁Attribute	-1565
▁BigDecimal	-1566
CK	-1567
be	-1568
▁buf	-1569
BLE	-1570
ERS	-1571
▁pl	-1572
▁Get	-1573
eries	-1574
resent	-1575
▁validate	-1576
Keys	-1577
file	-1578
Bundle	-1579
au	-1580
econd	-1581
▁open	-1582
Channel	-1583
oordinate	-1584
▁JSONObject	-1585
▁target	-1586
Ass	-1587
Tree	-1588
ancel	-1589
Support	-1590
Part	-1591
Calendar	-1592
▁HashSet	-1593
▁amazonaws	-1594
Rule	-1595
▁Link	-1596
Listeners	-1597
edia	-1598
▁Bit	-1599
Items	-1600
▁Tree	-1601
ations	-1602
▁toArray	-1603
▁printStackTrace	-1604
▁->	-1605
iver	-1606
▁comp	-1607
▁Index	-1608
▁empty	-1609
Default	-1610
QL	-1611
ova	-1612
oute	-1613
Parent	-1614
etwork	-1615
▁getUser	-1616
Collection	-1617
Dat	-1618
rimary	-1619
Registry	-1620
Template	-1621
▁ER	-1622
▁all	-1623
▁lock	-1624
Holder	-1625
verter	-1626
Controller	-1627
▁Sp	-1628
Flag	-1629
vert	-1630
ordova	-1631
▁Error	-1632
Adapter	-1633
Dis	-1634
Proxy	-1635
▁gener	-1636
ached	-1637
▁show	-1638
gg	-1639
mb	-1640
▁Name	-1641
▁Param	-1642
Transform	-1643
Parameters	-1644
ible	-1645
Logger	-1646
Row	-1647
odifiable	-1648
▁ClassLoader	-1649
plit	-1650
▁Task	-1651
Matrix	-1652
Container	-1653
Pan	-1654
lot	-1655
uid	-1656
eg	-1657
AGE	-1658
▁Res	-1659
ATION	-1660
Offset	-1661
Metadata	-1662
lar	-1663
TYPE	-1664
igest	-1665
estamp	-1666
▁Model	-1667
▁width	-1668
▁encode	-1669
Attributes	-1670
▁listeners	-1671
UID	-1672
Current	-1673
▁copy	-1674
▁finally	-1675
▁Property	-1676
imit	-1677
Preferences	-1678
▁path	-1679
Column	-1680
Is	-1681
Ign	-1682
Pri	-1683
▁An	-1684
▁ByteArray	-1685
▁Ar	-1686
▁Ge	-1687
ookup	-1688
tence	-1689
▁items	-1690
ANCE	-1691
duct	-1692
entic	-1693
▁getG	-1694
Plugin	-1695
▁child	-1696
▁keySet	-1697
▁getBytes	-1698
lip	-1699
arker	-1700
▁ERROR	-1701
ors	-1702
▁Pl	-1703
▁Token	-1704
▁Runnable	-1705
tep	-1706
Wrap	-1707
ices	-1708
resh	-1709
▁>>>	-1710
▁row	-1711
▁Valid	-1712
▁address	-1713
orian	-1714
Height	-1715
regorian	-1716
Directory	-1717
▁Z	-1718
Cap	-1719
PAR	-1720
▁event	-1721
Transaction	-1722
Work	-1723
▁source	-1724
▁getDefault	-1725
AS	-1726
Mon	-1727
inal	-1728
▁tag	-1729
▁service	-1730
regorianCalendar	-1731
amer	-1732
ient	-1733
▁inc	-1734
ority	-1735
▁getE	-1736
▁field	-1737
▁checkNotNull	-1738
FO	-1739
copy	-1740
Pair	-1741
▁pos	-1742
inary	-1743
▁Exec	-1744
Ignore	-1745
ization	-1746
Expression	-1747
01	-1748
If	-1749
etry	-1750
ical	-1751
▁process	-1752
nos	-1753
▁Json	-1754
▁EObject	-1755
Annotation	-1756
Ac	-1757
ved	-1758
▁0.0	-1759
EN	-1760
IL	-1761
▁of	-1762
amera	-1763
iction	-1764
Details	-1765
▁getCom	-1766
▁serial	-1767
Repository	-1768
▁arraycopy	-1769
▁charAt	-1770
Permission	-1771
Job	-1772
ton	-1773
▁Tag	-1774
Option	-1775
iagnos	-1776
odified	-1777
▁TimeZone	-1778
OM	-1779
uple	-1780
Files	-1781
utton	-1782
▁Print	-1783
IgnoreCase	-1784
▁root	-1785
Layout	-1786
Tracker	-1787
Utilities	-1788
▁getAttribute	-1789
mote	-1790
atform	-1791
legate	-1792
vision	-1793
▁string	-1794
de	-1795
▁sp	-1796
flow	-1797
gion	-1798
▁Inet	-1799
▁height	-1800
▁unmodifiable	-1801
DI	-1802
▁text	-1803
Serializer	-1804
▁HttpServlet	-1805
Be	-1806
her	-1807
ide	-1808
iled	-1809
ursor	-1810
▁Call	-1811
Elements	-1812
An	-1813
dk	-1814
eft	-1815
aset	-1816
anged	-1817
old	-1818
mutable	-1819
Variable	-1820
▁initial	-1821
▁compareTo	-1822
SIZE	-1823
asic	-1824
Matcher	-1825
ersistence	-1826
TT	-1827
Pos	-1828
SER	-1829
▁XY	-1830
▁url	-1831
▁api	-1832
actor	-1833
▁Server	-1834
Document	-1835
▁Cordova	-1836
bo	-1837
enu	-1838
Selector	-1839
▁StringUtils	-1840
▁Job	-1841
ditions	-1842
OUT	-1843
PER	-1844
min	-1845
rit	-1846
▁web	-1847
▁Order	-1848
po	-1849
▁ext	-1850
sumer	-1851
▁warn	-1852
▁trace	-1853
leton	-1854
▁flush	-1855
sertion	-1856
▁server	-1857
ingleton	-1858
Statement	-1859
ats	-1860
ures	-1861
ormal	-1862
▁call	-1863
▁entry	-1864
▁convert	-1865
▁Function	-1866
Uri	-1867
Back	-1868
▁stop	-1869
Handle	-1870
▁label	-1871
▁Linked	-1872
▁Annotation	-1873
▁CT	-1874
ategy	-1875
ialog	-1876
STANCE	-1877
ume	-1878
▁De	-1879
Prefix	-1880
▁Entity	-1881
▁offset	-1882
ByteArray	-1883
_2	-1884
▁mM	-1885
Match	-1886
▁exists	-1887
Converter	-1888
Obj	-1889
gle	-1890
▁ab	-1891
Frame	-1892
Create	-1893
▁sendP	-1894
▁JSONArray	-1895
▁getExternal	-1896
ote	-1897
▁date	-1898
Device	-1899
PointerException	-1900
INT	-1901
Extension	-1902
DA	-1903
▁25	-1904
▁Sdk	-1905
Pattern	-1906
▁attributes	-1907
GER	-1908
Last	-1909
ired	-1910
chedule	-1911
▁object	-1912
Comparator	-1913
nap	-1914
shot	-1915
▁getRe	-1916
▁group	-1917
rag	-1918
▁su	-1919
Selection	-1920
▁selected	-1921
DB	-1922
TI	-1923
▁Pr	-1924
0000	-1925
Lower	-1926
acity	-1927
Series	-1928
opping	-1929
▁SdkInternal	-1930
MO	-1931
rad	-1932
▁Servlet	-1933
Exp	-1934
ration	-1935
ank	-1936
gment	-1937
ension	-1938
▁getPath	-1939
▁Component	-1940
▁Expression	-1941
sql	-1942
▁He	-1943
▁OK	-1944
False	-1945
▁work	-1946
▁Query	-1947
▁Table	-1948
Binding	-1949
▁action	-1950
Settings	-1951
ignature	-1952
ClassLoader	-1953
50	-1954
ET	-1955
Bit	-1956
und	-1957
arsh	-1958
river	-1959
▁Auth	-1960
▁Command	-1961
▁Serializer	-1962
▁SdkInternalList	-1963
UT	-1964
VER	-1965
mail	-1966
QNAME	-1967
izable	-1968
Timeout	-1969
▁random	-1970
imension	-1971
iagnostics	-1972
Us	-1973
pc	-1974
line	-1975
tact	-1976
ination	-1977
▁getContent	-1978
anaged	-1979
▁Float	-1980
Storage	-1981
Category	-1982
XY	-1983
emp	-1984
Boolean	-1985
essages	-1986
Interval	-1987
▁Reference	-1988
are	-1989
▁0.	-1990
▁ed	-1991
Script	-1992
istance	-1993
ocation	-1994
▁Content	-1995
oll	-1996
▁io	-1997
ious	-1998
over	-1999
▁Block	-2000
Feature	-2001
Encoding	-2002
▁password	-2003
▁diagnostics	-2004
PRO	-2005
rig	-2006
MPTY	-2007
Open	-2008
ithm	-2009
null	-2010
▁inv	-2011
ocial	-2012
Deserializer	-2013
TED	-2014
imum	-2015
▁Line	-2016
Double	-2017
▁asList	-2018
▁resource	-2019
ph	-2020
Close	-2021
▁Java	-2022
▁XMLG	-2023
▁setP	-2024
▁Trace	-2025
napshot	-2026
raphics	-2027
▁myHost	-2028
▁output	-2029
ictionary	-2030
▁children	-2031
▁getResource	-2032
UM	-2033
ause	-2034
▁ref	-2035
▁Serial	-2036
▁cancel	-2037
Strategy	-2038
▁generate	-2039
▁Immutable	-2040
xFF	-2041
▁NO	-2042
bers	-2043
▁Work	-2044
▁save	-2045
▁setM	-2046
▁Level	-2047
Headers	-2048
Activity	-2049
cle	-2050
get	-2051
valu	-2052
▁Int	-2053
▁auth	-2054
SP	-2055
Bar	-2056
ret	-2057
umm	-2058
down	-2059
▁Base	-2060
▁conn	-2061
▁requ	-2062
▁resol	-2063
▁Record	-2064
ITY	-2065
Enum	-2066
Load	-2067
▁Build	-2068
▁EMPTY	-2069
perator	-2070
▁Precon	-2071
64	-2072
Dao	-2073
ibr	-2074
MENT	-2075
Width	-2076
ested	-2077
Fields	-2078
▁getFile	-2079
▁TypeDesc	-2080
Application	-2081
▁stateVector	-2082
SH	-2083
▁UI	-2084
anch	-2085
▁Hsql	-2086
▁line	-2087
Events	-2088
Mapper	-2089
jection	-2090
SL	-2091
Java	-2092
eriod	-2093
▁Filter	-2094
▁options	-2095
▁newInstance	-2096
▁Preconditions	-2097
ARN	-2098
PRE	-2099
▁Cache	-2100
▁assertFalse	-2101
Web	-2102
alc	-2103
gor	-2104
▁COS	-2105
▁task	-2106
Bounds	-2107
Mapping	-2108
▁decode	-2109
rimaryKey	-2110
▁Deserializer	-2111
NS	-2112
ENT	-2113
erify	-2114
▁getX	-2115
LowerCase	-2116
▁INSTANCE	-2117
▁IProject	-2118
▁Application	-2119
BUG	-2120
Rel	-2121
irt	-2122
ped	-2123
▁Mat	-2124
dress	-2125
ookie	-2126
space	-2127
▁bytes	-2128
▁token	-2129
Wrapper	-2130
▁Assertion	-2131
No	-2132
fs	-2133
Ver	-2134
▁column	-2135
▁Transaction	-2136
▁BeanSerializer	-2137
Fin	-2138
▁GL	-2139
▁PD	-2140
▁an	-2141
COND	-2142
ribe	-2143
▁Security	-2144
si	-2145
Box	-2146
Top	-2147
ear	-2148
mon	-2149
Uuid	-2150
rics	-2151
▁acc	-2152
▁base	-2153
▁link	-2154
▁query	-2155
▁number	-2156
▁Nonnull	-2157
Notification	-2158
▁Notification	-2159
ChangeListener	-2160
unk	-2161
▁Ed	-2162
queue	-2163
▁Random	-2164
▁camera	-2165
Protocol	-2166
Per	-2167
ets	-2168
▁12	-2169
▁|=	-2170
Json	-2171
Native	-2172
andard	-2173
Changed	-2174
▁getInt	-2175
▁handle	-2176
▁Managed	-2177
Condition	-2178
▁TimeUnit	-2179
OL	-2180
pro	-2181
▁SQL	-2182
▁conf	-2183
Observ	-2184
istory	-2185
▁parseInt	-2186
YPE	-2187
ranch	-2188
reden	-2189
▁getT	-2190
▁split	-2191
▁toLowerCase	-2192
Inst	-2193
aData	-2194
▁Page	-2195
▁node	-2196
ntries	-2197
utdown	-2198
gorithm	-2199
▁Intent	-2200
▁thread	-2201
Constraint	-2202
isplayName	-2203
▁Character	-2204
mp	-2205
ATOR	-2206
Chart	-2207
Debug	-2208
Upper	-2209
ailed	-2210
▁extr	-2211
Memory	-2212
▁Proxy	-2213
▁version	-2214
Auto	-2215
erson	-2216
Construct	-2217
uc	-2218
▁2.0	-2219
uction	-2220
Control	-2221
Monitor	-2222
▁DateTime	-2223
Account	-2224
▁XMLStream	-2225
▁getRequest	-2226
EX	-2227
ld	-2228
eet	-2229
That	-2230
▁TAG	-2231
▁DEBUG	-2232
iService	-2233
▁No	-2234
gent	-2235
▁Gener	-2236
▁Logger	-2237
▁Extension	-2238
▁Parameter	-2239
IO	-2240
Ph	-2241
AND	-2242
ORM	-2243
▁Mem	-2244
CTION	-2245
lease	-2246
▁1000	-2247
Button	-2248
Profile	-2249
▁LOGGER	-2250
▁Matrix	-2251
▁search	-2252
▁running	-2253
▁Generator	-2254
FFFF	-2255
Only	-2256
ason	-2257
▁Tim	-2258
Database	-2259
nch	-2260
Down	-2261
amed	-2262
iler	-2263
vail	-2264
Scope	-2265
round	-2266
▁factory	-2267
▁Activity	-2268
▁previous	-2269
Certificate	-2270
Inv	-2271
rup	-2272
▁can	-2273
ERSION	-2274
▁verify	-2275
DateFormat	-2276
entication	-2277
OF	-2278
qual	-2279
sert	-2280
irect	-2281
▁sort	-2282
Module	-2283
ending	-2284
rigger	-2285
▁notif	-2286
Supported	-2287
Num	-2288
rec	-2289
▁sql	-2290
First	-2291
▁Comp	-2292
▁getOS	-2293
▁property	-2294
Environment	-2295
▁assertThat	-2296
▁properties	-2297
FS	-2298
IG	-2299
Att	-2300
▁tim	-2301
▁Form	-2302
▁head	-2303
▁wait	-2304
▁Input	-2305
▁input	-2306
▁store	-2307
Entries	-2308
▁entity	-2309
redicate	-2310
▁CharSequence	-2311
Cl	-2312
▁Y	-2313
Hex	-2314
Ids	-2315
afe	-2316
ker	-2317
atis	-2318
udit	-2319
ances	-2320
▁make	-2321
Schema	-2322
SocketAddress	-2323
MS	-2324
Wh	-2325
Bits	-2326
Role	-2327
▁Dis	-2328
▁pop	-2329
▁use	-2330
ggreg	-2331
title	-2332
ibrary	-2333
iteral	-2334
▁Basic	-2335
Counter	-2336
▁matches	-2337
▁configuration	-2338
Op	-2339
▁-=	-2340
▁socket	-2341
El	-2342
xis	-2343
▁Id	-2344
roll	-2345
Space	-2346
Folder	-2347
ncoder	-2348
Dataset	-2349
GiService	-2350
▁Optional	-2351
Ms	-2352
ome	-2353
Write	-2354
uture	-2355
▁Mock	-2356
Random	-2357
Initial	-2358
ability	-2359
ustomer	-2360
▁params	-2361
▁getOSGiService	-2362
▁getPersistence	-2363
Sec	-2364
▁Al	-2365
▁Qu	-2366
Conn	-2367
sure	-2368
▁CON	-2369
▁fill	-2370
▁with	-2371
Window	-2372
▁Source	-2373
▁Stream	-2374
Execution	-2375
Processor	-2376
▁dynamicQuery	-2377
New	-2378
way	-2379
Init	-2380
Tool	-2381
▁abs	-2382
light	-2383
olute	-2384
▁Desc	-2385
▁lookup	-2386
DateTime	-2387
▁headers	-2388
scription	-2389
SET	-2390
ref	-2391
lish	-2392
▁MIN	-2393
Domain	-2394
Password	-2395
▁prepare	-2396
formation	-2397
▁delegate	-2398
▁listener	-2399
▁getContext	-2400
BO	-2401
Non	-2402
▁vis	-2403
cheme	-2404
ingle	-2405
Package	-2406
Present	-2407
▁Module	-2408
▁getCol	-2409
▁Address	-2410
▁replaceAll	-2411
aredPreferences	-2412
10	-2413
Conf	-2414
view	-2415
▁nativeObj	-2416
▁Coordinate	-2417
IP	-2418
serv	-2419
Panel	-2420
board	-2421
▁Grid	-2422
▁host	-2423
▁block	-2424
▁Standard	-2425
IS	-2426
ORT	-2427
PAT	-2428
ged	-2429
▁be	-2430
ometry	-2431
tition	-2432
▁style	-2433
▁builder	-2434
Cre	-2435
▁24	-2436
Icon	-2437
eted	-2438
olume	-2439
arshall	-2440
istribu	-2441
▁notify	-2442
Consumer	-2443
▁setName	-2444
▁intValue	-2445
NE	-2446
INE	-2447
TER	-2448
ryp	-2449
▁SC	-2450
JSON	-2451
Word	-2452
▁Sup	-2453
Limit	-2454
oogle	-2455
▁INFO	-2456
▁mode	-2457
▁activ	-2458
▁Matcher	-2459
▁endsWith	-2460
rea	-2461
ture	-2462
uage	-2463
Graph	-2464
▁code	-2465
Editor	-2466
▁Location	-2467
ma	-2468
eat	-2469
ique	-2470
▁Pri	-2471
Stats	-2472
▁TYPE	-2473
▁getY	-2474
HashMap	-2475
▁Client	-2476
▁document	-2477
▁transform	-2478
▁assertNotNull	-2479
uby	-2480
▁Up	-2481
ater	-2482
Scale	-2483
ivery	-2484
order	-2485
achine	-2486
tifact	-2487
ublish	-2488
▁OAuth	-2489
▁method	-2490
iv	-2491
ABLE	-2492
Rate	-2493
oder	-2494
pende	-2495
▁NoSu	-2496
ployment	-2497
▁nextInt	-2498
▁getParameter	-2499
▁gl	-2500
Term	-2501
sets	-2502
▁Hand	-2503
▁wrap	-2504
ground	-2505
▁getAll	-2506
db	-2507
Ind	-2508
Args	-2509
gine	-2510
alcul	-2511
▁view	-2512
▁Local	-2513
▁Media	-2514
▁image	-2515
▁render	-2516
▁setUser	-2517
▁Statement	-2518
BA	-2519
rc	-2520
to	-2521
FIX	-2522
int	-2523
ised	-2524
ouse	-2525
urre	-2526
▁Mon	-2527
▁mem	-2528
anyId	-2529
▁Bitmap	-2530
▁NoSuch	-2531
▁Socket	-2532
ATA	-2533
sum	-2534
FILE	-2535
Warn	-2536
▁UUID	-2537
▁Environment	-2538
no	-2539
Red	-2540
ymb	-2541
Draw	-2542
Edit	-2543
Menu	-2544
avig	-2545
ycle	-2546
▁Sub	-2547
enter	-2548
chedul	-2549
▁sample	-2550
▁Account	-2551
▁Graphics	-2552
▁setProperty	-2553
Dest	-2554
Fail	-2555
▁255	-2556
▁push	-2557
gistry	-2558
▁title	-2559
bsolute	-2560
ragment	-2561
▁Execution	-2562
▁startTime	-2563
11	-2564
ck	-2565
ty	-2566
DAO	-2567
ONE	-2568
adi	-2569
oke	-2570
▁Ph	-2571
itle	-2572
path	-2573
urch	-2574
Found	-2575
itive	-2576
ridge	-2577
table	-2578
▁page	-2579
Struct	-2580
▁queue	-2581
▁getNext	-2582
▁getFirst	-2583
▁response	-2584
IM	-2585
NG	-2586
SC	-2587
014	-2588
sing	-2589
▁Dec	-2590
Active	-2591
iation	-2592
larion	-2593
▁Multi	-2594
▁proxy	-2595
▁Reader	-2596
▁getHeight	-2597
▁PrintWriter	-2598
ise	-2599
lue	-2600
tin	-2601
▁UN	-2602
Pred	-2603
ines	-2604
wner	-2605
lobal	-2606
ariable	-2607
▁entrySet	-2608
▁component	-2609
▁FacesMessage	-2610
ove	-2611
▁Dat	-2612
▁uri	-2613
ipher	-2614
rement	-2615
▁Header	-2616
Timestamp	-2617
▁getWidth	-2618
▁Predicate	-2619
Information	-2620
▁getSession	-2621
Buf	-2622
▁Cl	-2623
ruct	-2624
Codes	-2625
tials	-2626
▁post	-2627
▁Stack	-2628
redentials	-2629
▁Container	-2630
ep	-2631
▁top	-2632
Nodes	-2633
chart	-2634
▁WARN	-2635
▁draw	-2636
Branch	-2637
Return	-2638
▁insert	-2639
▁Clarion	-2640
▁isDebug	-2641
▁InetAddress	-2642
ene	-2643
log	-2644
Sync	-2645
etch	-2646
ging	-2647
main	-2648
▁Pre	-2649
Multi	-2650
▁getO	-2651
irtual	-2652
rowser	-2653
Display	-2654
▁Access	-2655
▁Remote	-2656
▁normal	-2657
Capacity	-2658
▁resolve	-2659
▁Category	-2660
▁lastIndex	-2661
ude	-2662
roke	-2663
ting	-2664
udio	-2665
ffect	-2666
▁getJ	-2667
ArrayList	-2668
▁ActionEvent	-2669
DTO	-2670
▁32	-2671
▁At	-2672
roid	-2673
▁Any	-2674
▁per	-2675
anner	-2676
orter	-2677
▁Instance	-2678
▁getParent	-2679
▁NumberFormat	-2680
▁ResponseEntity	-2681
▁isDebugEnabled	-2682
UN	-2683
ls	-2684
cip	-2685
Root	-2686
lude	-2687
ummary	-2688
achment	-2689
▁Create	-2690
▁validator	-2691
▁BufferedImage	-2692
ited	-2693
▁KEY	-2694
▁dir	-2695
rincip	-2696
▁getSh	-2697
Man	-2698
▁Del	-2699
▁PRO	-2700
eline	-2701
▁role	-2702
▁color	-2703
▁Pattern	-2704
▁Describe	-2705
▁Constants	-2706
▁singleton	-2707
istribution	-2708
One	-2709
box	-2710
eas	-2711
lick	-2712
ERROR	-2713
ished	-2714
ceptor	-2715
▁Check	-2716
▁Handler	-2717
▁Process	-2718
▁getData	-2719
arshaller	-2720
Doc	-2721
▁mP	-2722
Tick	-2723
SSAGE	-2724
plier	-2725
econds	-2726
estion	-2727
rupted	-2728
Methods	-2729
▁plugin	-2730
▁extract	-2731
ChangeEvent	-2732
AM	-2733
TTP	-2734
URE	-2735
acy	-2736
Body	-2737
ifier	-2738
Resources	-2739
▁ServletContext	-2740
Min	-2741
▁*=	-2742
OutOf	-2743
ibility	-2744
OW	-2745
▁SV	-2746
Extr	-2747
Mask	-2748
Step	-2749
▁Xml	-2750
Groups	-2751
▁Label	-2752
vailable	-2753
umeration	-2754
▁Settings	-2755
Registration	-2756
▁us	-2757
cast	-2758
▁PRE	-2759
CONDS	-2760
▁bits	-2761
▁fire	-2762
Dialog	-2763
History	-2764
Metrics	-2765
▁digest	-2766
▁getBoolean	-2767
▁serialised	-2768
▁TestUtilities	-2769
DD	-2770
UI	-2771
UP	-2772
sl	-2773
eek	-2774
nown	-2775
▁Att	-2776
STATE	-2777
ymbol	-2778
▁Core	-2779
▁dest	-2780
Report	-2781
▁Group	-2782
▁mSize	-2783
Literal	-2784
▁Search	-2785
▁header	-2786
Endpoint	-2787
rincipal	-2788
▁OrderBy	-2789
▁Database	-2790
▁Operation	-2791
OutOfBounds	-2792
Le	-2793
VI	-2794
Inc	-2795
ade	-2796
kip	-2797
Area	-2798
Edge	-2799
Rect	-2800
atic	-2801
Compl	-2802
▁Pair	-2803
▁Paint	-2804
▁allow	-2805
▁stack	-2806
▁ensure	-2807
Security	-2808
▁Geometry	-2809
▁shutdown	-2810
gr	-2811
▁q	-2812
RAN	-2813
roy	-2814
Axis	-2815
Font	-2816
▁CSS	-2817
▁mark	-2818
Closed	-2819
tities	-2820
▁Tuple	-2821
▁level	-2822
Results	-2823
▁writer	-2824
▁elements	-2825
▁numberOf	-2826
▁setValue	-2827
PT	-2828
Need	-2829
Requ	-2830
plex	-2831
ryption	-2832
▁Layout	-2833
▁reader	-2834
InMillis	-2835
TimeZone	-2836
▁results	-2837
▁Interrupted	-2838
▁lastIndexOf	-2839
▁checkArgument	-2840
EL	-2841
ift	-2842
▁UT	-2843
▁not	-2844
Title	-2845
Total	-2846
ering	-2847
▁auto	-2848
▁inst	-2849
posite	-2850
▁right	-2851
▁bundle	-2852
Dictionary	-2853
ResponseType	-2854
rt	-2855
Bin	-2856
Rep	-2857
Val	-2858
▁FI	-2859
▁sq	-2860
Cell	-2861
▁mer	-2862
Float	-2863
arted	-2864
ertex	-2865
▁Iden	-2866
▁join	-2867
Assign	-2868
maining	-2869
▁google	-2870
▁command	-2871
▁getRoot	-2872
Instances	-2873
▁location	-2874
▁nextToken	-2875
▁JSONBuilder	-2876
▁GeneratorEntry	-2877
App	-2878
Off	-2879
▁20	-2880
▁mS	-2881
▁job	-2882
▁pri	-2883
Bitmap	-2884
Engine	-2885
outing	-2886
struct	-2887
Objects	-2888
Segment	-2889
machine	-2890
parable	-2891
urchase	-2892
ventory	-2893
Selected	-2894
▁Channel	-2895
▁reference	-2896
ObjectReference	-2897
vc	-2898
Fac	-2899
Iss	-2900
oly	-2901
atal	-2902
▁Std	-2903
▁bit	-2904
▁dat	-2905
aster	-2906
ating	-2907
avail	-2908
▁back	-2909
▁invoke	-2910
UpperCase	-2911
▁LinkedList	-2912
SocketFactory	-2913
ProgressMonitor	-2914
AME	-2915
ASK	-2916
▁AL	-2917
ucer	-2918
▁SSL	-2919
▁Sec	-2920
Route	-2921
ticip	-2922
▁http	-2923
PREFIX	-2924
▁Bytes	-2925
▁getAp	-2926
urrency	-2927
▁Struct	-2928
▁getPre	-2929
Executor	-2930
▁require	-2931
▁getMethod	-2932
AutoConstruct	-2933
▁Serializable	-2934
EST	-2935
Max	-2936
Rest	-2937
ware	-2938
▁200	-2939
Paint	-2940
▁exit	-2941
Locale	-2942
Period	-2943
▁Graph	-2944
▁Column	-2945
▁select	-2946
ticipant	-2947
Character	-2948
Enc	-2949
IVE	-2950
▁Su	-2951
LASS	-2952
ased	-2953
fter	-2954
▁and	-2955
▁cap	-2956
Short	-2957
igned	-2958
▁Font	-2959
▁bind	-2960
ayload	-2961
ayment	-2962
▁commit	-2963
NotFound	-2964
cheduler	-2965
▁getText	-2966
avigation	-2967
▁activity	-2968
▁getClassLoader	-2969
XT	-2970
Api	-2971
Raw	-2972
▁md	-2973
Rece	-2974
patch	-2975
▁Enum	-2976
Digest	-2977
sEntry	-2978
▁Change	-2979
▁record	-2980
Identity	-2981
▁VERSION	-2982
▁entries	-2983
▁currentThread	-2984
▁writeAttribute	-2985
PI	-2986
UR	-2987
COL	-2988
CHAR	-2989
MODE	-2990
pose	-2991
▁Vec	-2992
▁red	-2993
Price	-2994
kaleo	-2995
rigin	-2996
Region	-2997
engine	-2998
▁Utils	-2999
▁order	-3000
imeType	-3001
ritable	-3002
ToString	-3003
▁mNative	-3004
HttpClient	-3005
▁parameters	-3006
▁ResultMatcher	-3007
CHE	-3008
ITE	-3009
oop	-3010
yph	-3011
▁31	-3012
iers	-3013
orld	-3014
Props	-3015
anges	-3016
▁sqrt	-3017
Scroll	-3018
▁Range	-3019
Summary	-3020
elation	-3021
Operator	-3022
lipboard	-3023
▁Binding	-3024
▁Display	-3025
▁Version	-3026
▁FileSystem	-3027
▁UIComponent	-3028
▁getAbsolute	-3029
.'	-3030
_1	-3031
sp	-3032
DER	-3033
avi	-3034
dbc	-3035
▁DI	-3036
▁IC	-3037
Left	-3038
eria	-3039
vate	-3040
▁'.'	-3041
▁ads	-3042
Shard	-3043
▁keys	-3044
▁left	-3045
Reason	-3046
Upload	-3047
▁Close	-3048
riteria	-3049
Messages	-3050
▁Project	-3051
Addresses	-3052
▁Provider	-3053
▁schedule	-3054
EventListener	-3055
HT	-3056
US	-3057
ng	-3058
OUR	-3059
rop	-3060
▁db	-3061
▁Min	-3062
Print	-3063
verse	-3064
change	-3065
▁limit	-3066
anguage	-3067
▁Observ	-3068
MetaData	-3069
Modified	-3070
▁getTarget	-3071
▁toByteArray	-3072
PO	-3073
Ali	-3074
Imp	-3075
iff	-3076
oom	-3077
▁sC	-3078
Full	-3079
aved	-3080
▁Dir	-3081
▁app	-3082
chive	-3083
▁mock	-3084
Packet	-3085
▁Cluster	-3086
▁failure	-3087
▁eResource	-3088
▁linkTable	-3089
Has	-3090
ixed	-3091
odec	-3092
scri	-3093
tick	-3094
Shape	-3095
eight	-3096
▁Rest	-3097
Bridge	-3098
Driver	-3099
onical	-3100
▁STATE	-3101
Visible	-3102
▁handler	-3103
▁preview	-3104
▁database	-3105
▁initialize	-3106
ano	-3107
▁aw	-3108
Pane	-3109
RING	-3110
▁Inv	-3111
▁Ref	-3112
▁mon	-3113
Right	-3114
efore	-3115
overy	-3116
▁Conn	-3117
▁Edge	-3118
pletion	-3119
▁Binary	-3120
▁matcher	-3121
StateTest	-3122
▁workflow	-3123
▁separator	-3124
▁checkState	-3125
Gr	-3126
QUE	-3127
Use	-3128
oud	-3129
▁ec	-3130
TIME	-3131
▁str	-3132
▁rest	-3133
easure	-3134
Failure	-3135
Network	-3136
▁report	-3137
Revision	-3138
mt	-3139
Day	-3140
NOT	-3141
Post	-3142
ured	-3143
▁App	-3144
▁UTF	-3145
▁VER	-3146
Layer	-3147
Usage	-3148
▁Lock	-3149
▁Size	-3150
Marker	-3151
▁Track	-3152
▁avail	-3153
Cluster	-3154
PARATOR	-3155
Observer	-3156
ResultSet	-3157
▁writeInt	-3158
▁getObject	-3159
▁StringWriter	-3160
ULL	-3161
▁IS	-3162
▁ti	-3163
OUND	-3164
cent	-3165
▁Row	-3166
ORMAT	-3167
Parse	-3168
▁setF	-3169
▁temp	-3170
▁Parse	-3171
▁system	-3172
▁project	-3173
Formatter	-3174
▁getSimple	-3175
Arn	-3176
IAL	-3177
ITH	-3178
ITS	-3179
Tab	-3180
Buff	-3181
ence	-3182
plic	-3183
Clean	-3184
ducer	-3185
mploy	-3186
▁core	-3187
▁evalu	-3188
Product	-3189
▁getDec	-3190
Register	-3191
▁enabled	-3192
▁getBean	-3193
▁getPort	-3194
▁refresh	-3195
▁Writable	-3196
▁sequence	-3197
▁JSONWriter	-3198
▁ip	-3199
Copy	-3200
Kind	-3201
PATH	-3202
Qual	-3203
▁Arg	-3204
▁the	-3205
Member	-3206
jector	-3207
GroupId	-3208
sResult	-3209
▁engine	-3210
▁Feature	-3211
▁forName	-3212
▁release	-3213
Predicate	-3214
Tokenizer	-3215
▁getLocal	-3216
▁Condition	-3217
▁Comparable	-3218
▁toUpperCase	-3219
LS	-3220
Tip	-3221
asl	-3222
▁On	-3223
▁ph	-3224
Sort	-3225
ffff	-3226
vice	-3227
Timer	-3228
▁bean	-3229
▁getV	-3230
Secret	-3231
Children	-3232
▁counter	-3233
struction	-3234
▁Transport	-3235
▁Validation	-3236
ARG	-3237
arb	-3238
ded	-3239
▁IP	-3240
▁MO	-3241
gram	-3242
list	-3243
ocus	-3244
▁INT	-3245
Build	-3246
mount	-3247
▁Port	-3248
▁Read	-3249
▁orig	-3250
ateway	-3251
Running	-3252
ndpoint	-3253
version	-3254
▁social	-3255
atistics	-3256
▁getItem	-3257
Algorithm	-3258
▁Callback	-3259
▁mCurrent	-3260
▁security	-3261
▁application	-3262
▁getLocation	-3263
CL	-3264
DU	-3265
Ui	-3266
cs	-3267
ism	-3268
omp	-3269
cket	-3270
unce	-3271
yped	-3272
▁doc	-3273
▁rece	-3274
Switch	-3275
Creator	-3276
Encoder	-3277
▁Custom	-3278
▁domain	-3279
▁Network	-3280
▁NonNull	-3281
▁compute	-3282
▁webserv	-3283
▁HttpParams	-3284
▁getAbsolutePath	-3285
33	-3286
df	-3287
▁ID	-3288
▁ea	-3289
▁om	-3290
▁os	-3291
BOSE	-3292
COMP	-3293
omic	-3294
ovie	-3295
▁AST	-3296
▁tab	-3297
Agent	-3298
reshold	-3299
▁active	-3300
pendency	-3301
Coordinate	-3302
▁clearEvents	-3303
▁SQLException	-3304
▁getSimpleName	-3305
PA	-3306
aN	-3307
LAY	-3308
ech	-3309
ges	-3310
ira	-3311
orr	-3312
▁Ok	-3313
▁mG	-3314
ILLI	-3315
Radi	-3316
Tags	-3317
ideo	-3318
ular	-3319
▁Not	-3320
▁Psi	-3321
▁ret	-3322
▁val	-3323
aming	-3324
ounds	-3325
Author	-3326
▁Async	-3327
▁begin	-3328
▁multi	-3329
▁Update	-3330
▁Package	-3331
▁channel	-3332
▁getComp	-3333
Namespace	-3334
entLayout	-3335
▁TreeNode	-3336
▁userName	-3337
▁getLength	-3338
▁HttpStatus	-3339
XML	-3340
YTE	-3341
ito	-3342
lid	-3343
trol	-3344
Batch	-3345
Delay	-3346
apsed	-3347
▁Term	-3348
Aggreg	-3349
Visitor	-3350
current	-3351
▁copyOf	-3352
marshaller	-3353
▁emptyList	-3354
Distribution	-3355
▁displayName	-3356
OK	-3357
ni	-3358
Bro	-3359
CODE	-3360
ward	-3361
▁Geo	-3362
▁sys	-3363
Admin	-3364
tices	-3365
▁Rule	-3366
▁prop	-3367
Specif	-3368
▁Route	-3369
▁SEVER	-3370
Buffers	-3371
▁Packet	-3372
▁binary	-3373
▁putAll	-3374
▁region	-3375
▁throws	-3376
▁Generic	-3377
▁findAll	-3378
▁getLong	-3379
▁mValues	-3380
▁Hashtable	-3381
▁Resources	-3382
▁getSystem	-3383
▁Permission	-3384
▁sCInterface	-3385
Xml	-3386
▁AS	-3387
▁LE	-3388
▁le	-3389
olog	-3390
▁des	-3391
ffine	-3392
udent	-3393
Delete	-3394
▁Named	-3395
Actions	-3396
▁Render	-3397
▁cursor	-3398
▁custom	-3399
Warnings	-3400
▁getLast	-3401
▁exception	-3402
▁extension	-3403
▁Certificate	-3404
▁Enumeration	-3405
▁getConnection	-3406
▁FileInputStream	-3407
IC	-3408
PK	-3409
dl	-3410
sTo	-3411
LIST	-3412
Lite	-3413
RESS	-3414
Writ	-3415
code	-3416
part	-3417
▁0.5	-3418
▁act	-3419
Login	-3420
Stamp	-3421
nchor	-3422
▁edit	-3423
▁setS	-3424
nounce	-3425
Classes	-3426
▁bufpos	-3427
▁change	-3428
▁getRed	-3429
endering	-3430
rimitive	-3431
ublicKey	-3432
▁dispose	-3433
▁getWork	-3434
▁setTime	-3435
Transport	-3436
ureRandom	-3437
▁executor	-3438
▁getNumber	-3439
odifiedDate	-3440
▁getProject	-3441
Def	-3442
gon	-3443
pth	-3444
Feed	-3445
Hint	-3446
plan	-3447
▁Zip	-3448
Allow	-3449
Issue	-3450
errup	-3451
▁NAME	-3452
▁body	-3453
atalog	-3454
olygon	-3455
▁compl	-3456
▁point	-3457
▁Format	-3458
▁Storage	-3459
▁VERBOSE	-3460
▁perform	-3461
Partition	-3462
▁Executor	-3463
▁Snapshot	-3464
▁interrup	-3465
Transition	-3466
▁parameter	-3467
▁Projection	-3468
cl	-3469
Ins	-3470
Flow	-3471
aunc	-3472
ixel	-3473
lags	-3474
leep	-3475
Modif	-3476
Suite	-3477
▁HTTP	-3478
▁iden	-3479
Exists	-3480
Finder	-3481
Worker	-3482
social	-3483
umeric	-3484
▁Mouse	-3485
Setting	-3486
agement	-3487
ipeline	-3488
▁Parser	-3489
▁Script	-3490
▁access	-3491
▁packet	-3492
shopping	-3493
▁provider	-3494
Destination	-3495
▁Comparator	-3496
▁assertNull	-3497
ECT	-3498
ORY	-3499
tml	-3500
▁We	-3501
▁bo	-3502
▁gr	-3503
Anim	-3504
CESS	-3505
Card	-3506
DATE	-3507
FFER	-3508
OUNT	-3509
TEXT	-3510
size	-3511
▁NUM	-3512
▁SVG	-3513
▁ind	-3514
Transl	-3515
▁Native	-3516
▁toChar	-3517
▁getBlue	-3518
▁Platform	-3519
▁Suppress	-3520
▁getGreen	-3521
▁Closeable	-3522
▁getStatus	-3523
▁addMessage	-3524
▁ImmutableList	-3525
▁setPrimaryKey	-3526
Fl	-3527
iti	-3528
▁1.	-3529
▁gc	-3530
▁no	-3531
Slot	-3532
ense	-3533
havi	-3534
▁Top	-3535
▁isN	-3536
Activ	-3537
Equal	-3538
Flags	-3539
Tuple	-3540
ology	-3541
▁skip	-3542
Future	-3543
ersist	-3544
▁Queue	-3545
▁alloc	-3546
▁types	-3547
▁visit	-3548
ociation	-3549
▁timeout	-3550
▁Validate	-3551
▁template	-3552
▁username	-3553
▁Dimension	-3554
▁getColumn	-3555
▁removeAll	-3556
resentation	-3557
▁Repository	-3558
▁Statechart	-3559
▁addElement	-3560
Ip	-3561
cat	-3562
net	-3563
vel	-3564
mark	-3565
▁any	-3566
Chunk	-3567
Gener	-3568
▁Open	-3569
Direct	-3570
Stroke	-3571
ixture	-3572
DEFAULT	-3573
NonNull	-3574
SECONDS	-3575
▁getMax	-3576
▁android	-3577
▁getSize	-3578
▁isValid	-3579
▁product	-3580
ClassName	-3581
▁Protocol	-3582
▁category	-3583
▁elementAt	-3584
▁interrupt	-3585
▁collection	-3586
ffineTransform	-3587
WN	-3588
cp	-3589
tx	-3590
AST	-3591
Det	-3592
RAY	-3593
Uns	-3594
cel	-3595
▁ag	-3596
▁mC	-3597
▁op	-3598
arge	-3599
▁SAX	-3600
▁obj	-3601
▁rep	-3602
known	-3603
▁curr	-3604
▁term	-3605
Anchor	-3606
CATION	-3607
Needle	-3608
▁Kaleo	-3609
▁Lists	-3610
▁kaleo	-3611
MESSAGE	-3612
Publish	-3613
▁Memory	-3614
▁Output	-3615
▁unlock	-3616
alculate	-3617
▁Internal	-3618
▁remaining	-3619
nouncements	-3620
▁permission	-3621
▁newArrayList	-3622
lipboardSupport	-3623
ASE	-3624
▁40	-3625
▁DB	-3626
Mapp	-3627
Mock	-3628
ther	-3629
▁raw	-3630
Recon	-3631
▁Host	-3632
tended	-3633
▁Movie	-3634
Contain	-3635
erialize	-3636
▁COSName	-3637
▁ResultSet	-3638
▁normalize	-3639
▁setStatus	-3640
▁connections	-3641
12	-3642
Bl	-3643
CP	-3644
DL	-3645
dy	-3646
BER	-3647
ORD	-3648
Sin	-3649
ala	-3650
tor	-3651
▁::	-3652
▁TR	-3653
LOCK	-3654
lyph	-3655
type	-3656
CLASS	-3657
Email	-3658
Verif	-3659
ooled	-3660
▁Disc	-3661
Commit	-3662
▁Typed	-3663
Archive	-3664
Library	-3665
essment	-3666
olution	-3667
▁Cookie	-3668
▁parser	-3669
▁Endpoint	-3670
▁expected	-3671
▁getResponse	-3672
▁XMLStreamWriter	-3673
2_	-3674
MA	-3675
MI	-3676
tf	-3677
ui	-3678
ym	-3679
DEX	-3680
IZE	-3681
LAG	-3682
LON	-3683
Len	-3684
MAP	-3685
pha	-3686
▁EP	-3687
▁df	-3688
DATA	-3689
Remo	-3690
VICE	-3691
aste	-3692
ived	-3693
park	-3694
▁All	-3695
▁ESI	-3696
▁rot	-3697
Units	-3698
ciler	-3699
▁setC	-3700
Errors	-3701
Failed	-3702
Player	-3703
issing	-3704
▁Audit	-3705
▁Scope	-3706
▁Shape	-3707
▁annot	-3708
ierarch	-3709
ilities	-3710
mployee	-3711
▁Vertex	-3712
▁submit	-3713
Finished	-3714
ighlight	-3715
▁Contact	-3716
▁network	-3717
Available	-3718
▁platform	-3719
▁MediaType	-3720
▁booleanValue	-3721
▁getApplication	-3722
HE	-3723
Msg	-3724
dir	-3725
uff	-3726
▁15	-3727
▁EX	-3728
▁IR	-3729
▁ws	-3730
More	-3731
lers	-3732
Inner	-3733
Throw	-3734
▁Card	-3735
▁Cell	-3736
▁TRUE	-3737
▁free	-3738
▁move	-3739
▁peek	-3740
▁rows	-3741
FORMAT	-3742
Unique	-3743
antity	-3744
▁Batch	-3745
▁clock	-3746
▁names	-3747
Started	-3748
Success	-3749
▁Plugin	-3750
▁Schema	-3751
▁prefix	-3752
Delivery	-3753
Duration	-3754
▁getNode	-3755
▁portlet	-3756
CompanyId	-3757
HexString	-3758
▁argument	-3759
▁evaluate	-3760
FileSystem	-3761
▁toCharArray	-3762
▁ThreadFactory	-3763
GE	-3764
KNO	-3765
LOG	-3766
att	-3767
rip	-3768
▁av	-3769
TERN	-3770
vile	-3771
Topic	-3772
ester	-3773
▁Role	-3774
▁Sort	-3775
stream	-3776
▁clean	-3777
anceled	-3778
eatures	-3779
▁Cursor	-3780
▁Writer	-3781
▁finest	-3782
▁screen	-3783
Requests	-3784
▁success	-3785
Validator	-3786
▁ListWith	-3787
▁registry	-3788
▁container	-3789
▁getTimeZone	-3790
▁OkHttpClient	-3791
Ho	-3792
000	-3793
ART	-3794
PRI	-3795
ROU	-3796
SQL	-3797
eep	-3798
eer	-3799
oft	-3800
▁CO	-3801
LENG	-3802
SSUE	-3803
ases	-3804
oice	-3805
▁VAL	-3806
▁cur	-3807
Chain	-3808
eetup	-3809
idget	-3810
▁Ruby	-3811
▁Span	-3812
▁play	-3813
LEMENT	-3814
Volume	-3815
alance	-3816
escape	-3817
▁ISSUE	-3818
▁Short	-3819
▁merge	-3820
▁saved	-3821
▁getNew	-3822
AsString	-3823
resource	-3824
▁Objects	-3825
▁Product	-3826
▁account	-3827
▁DataType	-3828
▁TypeCode	-3829
▁Transform	-3830
▁Transition	-3831
Subscription	-3832
▁JSONException	-3833
ElementException	-3834
OT	-3835
UB	-3836
Inf	-3837
irm	-3838
oul	-3839
2014	-3840
ross	-3841
▁Cms	-3842
▁rel	-3843
▁ver	-3844
Comma	-3845
Kaleo	-3846
Place	-3847
count	-3848
ensor	-3849
essed	-3850
oding	-3851
▁font	-3852
FFFFFF	-3853
▁Chart	-3854
▁Shard	-3855
▁scale	-3856
scriber	-3857
▁waitFor	-3858
SEPARATOR	-3859
▁Artifact	-3860
▁getField	-3861
▁getLabel	-3862
Permissions	-3863
AB	-3864
FT	-3865
Ge	-3866
RY	-3867
sf	-3868
ADD	-3869
IST	-3870
JECT	-3871
Wait	-3872
Begin	-3873
Lines	-3874
tical	-3875
▁tags	-3876
ByName	-3877
Facade	-3878
LENGTH	-3879
ressed	-3880
▁await	-3881
anoTime	-3882
radient	-3883
▁Sorted	-3884
▁fields	-3885
▁marker	-3886
▁connect	-3887
▁destroy	-3888
Background	-3889
▁condition	-3890
▁getLogger	-3891
▁putString	-3892
BarRenderer	-3893
▁setAttribute	-3894
ResultCallback	-3895
▁XMLStreamReader	-3896
24	-3897
ik	-3898
ATT	-3899
Tls	-3900
aim	-3901
rie	-3902
vas	-3903
▁CA	-3904
▁Gd	-3905
▁ME	-3906
▁SA	-3907
Main	-3908
Plan	-3909
amel	-3910
anti	-3911
emon	-3912
icon	-3913
igit	-3914
ores	-3915
ttom	-3916
uite	-3917
▁3.0	-3918
▁ign	-3919
ARRAY	-3920
ITION	-3921
KNOWN	-3922
▁TEST	-3923
Origin	-3924
Points	-3925
ncoded	-3926
▁login	-3927
▁round	-3928
Preview	-3929
▁Common	-3930
▁Policy	-3931
▁second	-3932
TreeNode	-3933
▁Virtual	-3934
▁created	-3935
▁maximum	-3936
Structure	-3937
▁increment	-3938
Participant	-3939
▁getAddress	-3940
▁transaction	-3941
▁AssertionError	-3942
▁Authentication	-3943
ta	-3944
tp	-3945
Gen	-3946
SPA	-3947
col	-3948
mun	-3949
▁36	-3950
▁MD	-3951
▁cs	-3952
ById	-3953
TENT	-3954
data	-3955
▁src	-3956
▁Game	-3957
▁impl	-3958
Amount	-3959
Remote	-3960
sCount	-3961
▁IJava	-3962
▁Device	-3963
▁device	-3964
▁schema	-3965
FilePath	-3966
Fragment	-3967
Priority	-3968
▁comment	-3969
▁readInt	-3970
Implement	-3971
▁Callable	-3972
▁Identity	-3973
▁Position	-3974
▁Register	-3975
▁Timestamp	-3976
▁available	-3977
▁signature	-3978
Interceptor	-3979
▁getVersion	-3980
▁repository	-3981
▁sysSession	-3982
RequestBuilder	-3983
▁BufferedReader	-3984
20	-3985
AY	-3986
pr	-3987
ynt	-3988
PORT	-3989
avor	-3990
▁opt	-3991
COUNT	-3992
ading	-3993
yntax	-3994
▁full	-3995
▁rule	-3996
▁word	-3997
Single	-3998
titude	-3999
▁Match	-4000
▁equal	-4001
▁getSc	-4002
▁modif	-4003
▁sleep	-4004
Tokener	-4005
▁Person	-4006
▁Subject	-4007
▁GridData	-4008
▁Interval	-4009
▁doSwitch	-4010
▁getIndex	-4011
▁variable	-4012
▁RecordRef	-4013
▁calculate	-4014
▁DataSource	-4015
▁Observable	-4016
▁requireNonNull	-4017
FE	-4018
Fs	-4019
gex	-4020
▁Sw	-4021
ante	-4022
vers	-4023
▁Man	-4024
▁bin	-4025
▁isC	-4026
White	-4027
agate	-4028
ncies	-4029
value	-4030
▁Blob	-4031
▁Tick	-4032
▁desc	-4033
Cursor	-4034
havior	-4035
verity	-4036
▁Agent	-4037
▁Month	-4038
Runtime	-4039
ollback	-4040
▁getURI	-4041
Platform	-4042
Producer	-4043
Receiver	-4044
▁hasMore	-4045
▁mBuffers	-4046
▁protocol	-4047
Components	-4048
▁binarySearch	-4049
▁getPrimaryKey	-4050
▁getDisplayName	-4051
GB	-4052
hip	-4053
▁mk	-4054
Book	-4055
Plot	-4056
WITH	-4057
ffic	-4058
rypt	-4059
▁isP	-4060
▁mIs	-4061
OURCE	-4062
QUEST	-4063
SPACE	-4064
pared	-4065
▁Code	-4066
▁STAT	-4067
▁Sync	-4068
▁card	-4069
▁down	-4070
▁proc	-4071
BUFFER	-4072
STRING	-4073
Vertex	-4074
return	-4075
▁MILLI	-4076
patcher	-4077
▁interv	-4078
▁policy	-4079
Distance	-4080
Runnable	-4081
▁cluster	-4082
▁display	-4083
▁webView	-4084
ubyObject	-4085
▁fPresent	-4086
ByteBuffer	-4087
▁construct	-4088
▁operation	-4089
▁errorCodes	-4090
▁getCompanyId	-4091
▁ResourceAdapter	-4092
32	-4093
WT	-4094
FIN	-4095
eam	-4096
ful	-4097
▁XA	-4098
▁__	-4099
ould	-4100
▁ord	-4101
▁unc	-4102
Focus	-4103
Hoach	-4104
ignal	-4105
sList	-4106
▁Fast	-4107
▁sign	-4108
Factor	-4109
Lookup	-4110
efined	-4111
ipient	-4112
▁Style	-4113
▁lower	-4114
Contact	-4115
bership	-4116
▁Metric	-4117
Vertices	-4118
anonical	-4119
▁getAuth	-4120
▁getHost	-4121
▁invalid	-4122
ValuePair	-4123
abilities	-4124
▁capacity	-4125
▁failures	-4126
▁ModelNode	-4127
ContentType	-4128
HttpServlet	-4129
TipGenerator	-4130
▁IRubyObject	-4131
▁isDirectory	-4132
▁ServerSocket	-4133
▁setCompanyId	-4134
▁MessageDigest	-4135
▁AffineTransform	-4136
ES	-4137
ns	-4138
sg	-4139
DIR	-4140
LET	-4141
elf	-4142
oap	-4143
▁FS	-4144
▁IF	-4145
▁WS	-4146
NODE	-4147
Save	-4148
Site	-4149
conn	-4150
verl	-4151
▁cre	-4152
▁gen	-4153
egacy	-4154
entry	-4155
Viewer	-4156
adcast	-4157
ective	-4158
liding	-4159
▁fetch	-4160
▁nodes	-4161
Graphic	-4162
▁Aggreg	-4163
▁Player	-4164
▁observ	-4165
Accessor	-4166
Configur	-4167
laration	-4168
▁Charset	-4169
▁IStatus	-4170
▁setText	-4171
ersistent	-4172
▁Distance	-4173
▁ToString	-4174
Invocation	-4175
Operations	-4176
Reconciler	-4177
Validation	-4178
▁Composite	-4179
▁className	-4180
▁getElement	-4181
Db	-4182
IRA	-4183
Seq	-4184
zer	-4185
▁Gr	-4186
Attr	-4187
Free	-4188
naly	-4189
sync	-4190
▁MAP	-4191
▁OUT	-4192
▁hel	-4193
ATURE	-4194
After	-4195
ITIAL	-4196
Owner	-4197
Tasks	-4198
anvas	-4199
class	-4200
ticle	-4201
tract	-4202
▁1024	-4203
▁args	-4204
▁getH	-4205
Center	-4206
Screen	-4207
States	-4208
Tables	-4209
▁Count	-4210
▁VALUE	-4211
▁XPath	-4212
▁minor	-4213
Comment	-4214
Locator	-4215
Seconds	-4216
▁author	-4217
External	-4218
Mappings	-4219
▁removed	-4220
Positions	-4221
▁Registry	-4222
▁getCount	-4223
▁settings	-4224
▁firstName	-4225
▁registered	-4226
▁Description	-4227
▁HttpRequest	-4228
▁SecureRandom	-4229
▁getComponent	-4230
ViewController	-4231
1_	-4232
pa	-4233
ORE	-4234
mem	-4235
ump	-4236
▁60	-4237
▁My	-4238
READ	-4239
ored	-4240
▁BAD	-4241
▁Gdx	-4242
NABLE	-4243
▁dead	-4244
▁mail	-4245
▁rval	-4246
Select	-4247
ecycle	-4248
▁Stage	-4249
▁batch	-4250
▁flags	-4251
▁shard	-4252
▁track	-4253
oneable	-4254
straint	-4255
▁Listen	-4256
▁ReInit	-4257
▁cached	-4258
▁dialog	-4259
▁getLog	-4260
▁layout	-4261
FileName	-4262
Relation	-4263
riterion	-4264
Dimension	-4265
Signature	-4266
▁Variable	-4267
▁PrintStream	-4268
Pr	-4269
aj	-4270
DBC	-4271
IND	-4272
RES	-4273
ict	-4274
▁AC	-4275
▁tx	-4276
Rows	-4277
Same	-4278
Sign	-4279
ally	-4280
eloc	-4281
umul	-4282
▁Box	-4283
▁Doc	-4284
014_2	-4285
Final	-4286
igure	-4287
strap	-4288
uffle	-4289
▁Draw	-4290
▁nets	-4291
Binder	-4292
Tokens	-4293
▁Audio	-4294
▁setId	-4295
_2014_2	-4296
▁driver	-4297
▁unique	-4298
Criteria	-4299
ootstrap	-4300
▁Invalid	-4301
Extractor	-4302
▁getImage	-4303
▁isAssign	-4304
▁netsuite	-4305
▁TimeValue	-4306
▁setParent	-4307
RequestType	-4308
Transformer	-4309
▁mBuffersBy	-4310
▁webservices	-4311
EntityManager	-4312
▁Unmarshaller	-4313
ToolTipGenerator	-4314
PEN	-4315
sub	-4316
▁cm	-4317
LOSE	-4318
jira	-4319
long	-4320
sole	-4321
▁Hel	-4322
▁Rel	-4323
20140	-4324
SSION	-4325
Words	-4326
ourse	-4327
tempt	-4328
▁Main	-4329
▁Menu	-4330
▁addr	-4331
▁emit	-4332
▁pool	-4333
▁sasl	-4334
AndGet	-4335
Serial	-4336
anager	-4337
bility	-4338
Trigger	-4339
VERSION	-4340
WITHOUT	-4341
▁Delete	-4342
Blocking	-4343
Schedule	-4344
▁Supplier	-4345
▁Workflow	-4346
▁nanoTime	-4347
▁readLine	-4348
Processing	-4349
▁getPackage	-4350
▁HttpSession	-4351
▁IJavaScript	-4352
▁PathVariable	-4353
▁ClarionObject	-4354
▁BeanDefinition	-4355
EW	-4356
_0	-4357
dd	-4358
tc	-4359
IDE	-4360
UTE	-4361
Zer	-4362
ens	-4363
▁sw	-4364
Grid	-4365
MASK	-4366
Used	-4367
blem	-4368
role	-4369
this	-4370
▁dfp	-4371
Click	-4372
Clock	-4373
Delim	-4374
Evalu	-4375
VALID	-4376
erved	-4377
lared	-4378
outer	-4379
▁Pool	-4380
▁poll	-4381
▁uuid	-4382
icator	-4383
viders	-4384
▁email	-4385
▁other	-4386
ignment	-4387
▁Select	-4388
▁Window	-4389
▁getPro	-4390
▁resize	-4391
▁transl	-4392
ableFrom	-4393
▁Options	-4394
▁minimum	-4395
Rendering	-4396
▁Selector	-4397
▁customer	-4398
▁getBlock	-4399
▁interval	-4400
▁Signature	-4401
▁Validator	-4402
▁getClient	-4403
▁timestamp	-4404
Credentials	-4405
▁Dependency	-4406
▁MouseEvent	-4407
▁expression	-4408
▁doubleValue	-4409
▁AssertionInfo	-4410
BE	-4411
ku	-4412
Mgr	-4413
Spi	-4414
▁By	-4415
HAND	-4416
Meta	-4417
Show	-4418
abor	-4419
▁Act	-4420
▁PAT	-4421
▁TLS	-4422
▁pow	-4423
▁tmp	-4424
ARGET	-4425
Media	-4426
Rules	-4427
Times	-4428
egend	-4429
▁Exit	-4430
▁NONE	-4431
▁PREF	-4432
▁USER	-4433
▁part	-4434
Scheme	-4435
arshal	-4436
▁Paste	-4437
▁scala	-4438
atitude	-4439
▁Atomic	-4440
▁Cached	-4441
▁Future	-4442
▁Naming	-4443
register	-4444
▁pattern	-4445
▁SEVERITY	-4446
▁getStart	-4447
lidingMenu	-4448
▁errorKeys	-4449
▁resources	-4450
Declaration	-4451
▁getAnnotation	-4452
▁RemoteException	-4453
SA	-4454
PUT	-4455
ife	-4456
Cart	-4457
Exit	-4458
RIBU	-4459
▁PER	-4460
▁Sql	-4461
▁XMP	-4462
▁non	-4463
▁sec	-4464
Based	-4465
Chars	-4466
Split	-4467
asset	-4468
▁Args	-4469
▁FILE	-4470
▁Stat	-4471
▁real	-4472
▁tick	-4473
▁when	-4474
Blocks	-4475
▁async	-4476
Gateway	-4477
Texture	-4478
edState	-4479
indings	-4480
ompress	-4481
troller	-4482
▁EClass	-4483
▁eClass	-4484
▁global	-4485
▁locale	-4486
▁module	-4487
▁Mutable	-4488
▁scanner	-4489
ationDate	-4490
▁Metadata	-4491
▁Revision	-4492
▁endpoint	-4493
▁getCache	-4494
▁getCause	-4495
▁required	-4496
Completion	-4497
Statistics	-4498
▁ViewGroup	-4499
▁serialize	-4500
▁JsonObject	-4501
▁mListeners	-4502
▁getNewValue	-4503
▁getClassName	-4504
▁getWorkspace	-4505
▁statemachine	-4506
LabelGenerator	-4507
Bo	-4508
DM	-4509
OP	-4510
gL	-4511
sm	-4512
ws	-4513
Dem	-4514
IME	-4515
▁em	-4516
Addr	-4517
Core	-4518
ROUP	-4519
UUID	-4520
anos	-4521
just	-4522
ling	-4523
mbed	-4524
oriz	-4525
pect	-4526
▁Enc	-4527
▁hex	-4528
▁isD	-4529
Blank	-4530
PTION	-4531
ctive	-4532
start	-4533
▁Exif	-4534
▁done	-4535
▁tree	-4536
AndSet	-4537
RIBUTE	-4538
atient	-4539
▁Resol	-4540
HashSet	-4541
section	-4542
ulation	-4543
▁Single	-4544
▁escape	-4545
▁expand	-4546
▁failed	-4547
▁getRun	-4548
▁ignore	-4549
Contents	-4550
Entities	-4551
▁Factory	-4552
▁UNKNOWN	-4553
▁include	-4554
▁mapping	-4555
▁pending	-4556
Direction	-4557
▁Consumer	-4558
▁LogLevel	-4559
▁Priority	-4560
▁Progress	-4561
▁callback	-4562
▁isClosed	-4563
▁progress	-4564
▁sessionId	-4565
▁setCreate	-4566
▁JSONTokener	-4567
▁TypeLiteral	-4568
▁writeObject	-4569
25	-4570
Co	-4571
DK	-4572
OC	-4573
da	-4574
Any	-4575
ERO	-4576
ari	-4577
ood	-4578
uer	-4579
wer	-4580
▁SP	-4581
Help	-4582
Real	-4583
Sets	-4584
Stop	-4585
sfEl	-4586
▁COR	-4587
▁Mvc	-4588
▁NOT	-4589
antee	-4590
ified	-4591
index	-4592
▁Feed	-4593
▁Unit	-4594
▁href	-4595
▁tail	-4596
▁unit	-4597
arbage	-4598
▁Alert	-4599
▁INTER	-4600
▁Swing	-4601
▁Timer	-4602
▁getIn	-4603
▁media	-4604
▁month	-4605
Allowed	-4606
AndView	-4607
PATTERN	-4608
TlsMode	-4609
egative	-4610
▁getAnd	-4611
▁getOut	-4612
Defaults	-4613
Dispatch	-4614
Drawable	-4615
Transfer	-4616
▁ArrayOf	-4617
▁Trigger	-4618
▁collect	-4619
▁compile	-4620
JSONArray	-4621
Observers	-4622
▁getJsfEl	-4623
▁ItemStack	-4624
▁Workspace	-4625
▁direction	-4626
Constructor	-4627
HttpRequest	-4628
▁getDocument	-4629
▁getNextToken	-4630
▁lastModified	-4631
▁MockHttpServlet	-4632
?'	-4633
SV	-4634
cr	-4635
ARK	-4636
ars	-4637
ias	-4638
▁Db	-4639
▁OM	-4640
▁PI	-4641
▁di	-4642
▁er	-4643
▁lo	-4644
ADER	-4645
BASE	-4646
LINE	-4647
MPLE	-4648
Temp	-4649
peri	-4650
▁'?'	-4651
itude	-4652
▁Dial	-4653
▁SIZE	-4654
▁coll	-4655
▁lLog	-4656
Before	-4657
Custom	-4658
Effect	-4659
PNames	-4660
Restri	-4661
Sample	-4662
alEdit	-4663
gLabor	-4664
icense	-4665
▁Phone	-4666
▁frame	-4667
▁mkdir	-4668
▁quote	-4669
Decoder	-4670
Numbers	-4671
Records	-4672
Visited	-4673
▁cookie	-4674
▁isNull	-4675
▁should	-4676
DataType	-4677
Override	-4678
Services	-4679
▁install	-4680
▁storage	-4681
▁Extended	-4682
▁setColor	-4683
Deployment	-4684
Visibility	-4685
▁propagate	-4686
▁fPresenter	-4687
▁toHexString	-4688
▁getCanonical	-4689
▁ExtensionList	-4690
Do	-4691
kb	-4692
ky	-4693
ARD	-4694
ORK	-4695
Pop	-4696
azz	-4697
eel	-4698
idd	-4699
▁SH	-4700
▁VM	-4701
▁sb	-4702
Cost	-4703
Each	-4704
Game	-4705
Iter	-4706
Mark	-4707
USER	-4708
VENT	-4709
alth	-4710
amil	-4711
onet	-4712
ront	-4713
rott	-4714
uted	-4715
▁4.0	-4716
▁Bar	-4717
▁arc	-4718
▁len	-4719
Async	-4720
Codec	-4721
Score	-4722
obile	-4723
▁heap	-4724
▁step	-4725
Ticket	-4726
formed	-4727
▁Activ	-4728
▁VType	-4729
▁force	-4730
▁getOr	-4731
▁mNext	-4732
▁route	-4733
ADDRESS	-4734
olicies	-4735
ributed	-4736
▁amount	-4737
▁arrays	-4738
▁findBy	-4739
Callable	-4740
izedType	-4741
titution	-4742
▁Unknown	-4743
▁columns	-4744
▁contact	-4745
enticator	-4746
▁Operator	-4747
▁mGarbage	-4748
▁metadata	-4749
JSONObject	-4750
▁Singleton	-4751
▁getBundle	-4752
▁hashTable	-4753
▁inventory	-4754
▁DateFormat	-4755
▁stringData	-4756
NotSupported	-4757
▁initialized	-4758
alPreferences	-4759
▁EntityManager	-4760
▁HsqlProperties	-4761
▁ResourcesPlugin	-4762
EM	-4763
IZ	-4764
JB	-4765
QU	-4766
Acc	-4767
EDI	-4768
Esc	-4769
NAL	-4770
lev	-4771
ota	-4772
▁Ip	-4773
▁JS	-4774
▁Rx	-4775
▁Wh	-4776
Disc	-4777
INFO	-4778
Play	-4779
Span	-4780
▁Acc	-4781
▁DOM	-4782
▁SER	-4783
▁def	-4784
▁sum	-4785
reque	-4786
▁Book	-4787
▁isIn	-4788
Assert	-4789
Depend	-4790
coding	-4791
▁Files	-4792
▁isNaN	-4793
▁timer	-4794
▁upper	-4795
Connect	-4796
Payment	-4797
▁Cipher	-4798
▁Domain	-4799
▁getMin	-4800
Behavior	-4801
Complete	-4802
Delegate	-4803
LContext	-4804
Snapshot	-4805
▁Logging	-4806
▁dynamic	-4807
▁elapsed	-4808
▁payload	-4809
Classpath	-4810
Publisher	-4811
▁distance	-4812
▁duration	-4813
Statechart	-4814
pendencies	-4815
▁EventType	-4816
▁FieldMask	-4817
▁getSource	-4818
▁longValue	-4819
eetupsEntry	-4820
▁dataSource	-4821
▁ResourceType	-4822
Authentication	-4823
▁unmodifiableSet	-4824
0'	-4825
IX	-4826
LY	-4827
ek	-4828
jo	-4829
sv	-4830
ww	-4831
MIT	-4832
Mat	-4833
REE	-4834
Sum	-4835
ndi	-4836
umb	-4837
BYTE	-4838
Math	-4839
last	-4840
link	-4841
ones	-4842
rict	-4843
utom	-4844
vide	-4845
▁'0'	-4846
▁ALL	-4847
▁And	-4848
▁DAY	-4849
▁RES	-4850
▁are	-4851
FOUND	-4852
PERTY	-4853
SILON	-4854
tinue	-4855
▁Anim	-4856
▁DATA	-4857
▁Hive	-4858
▁Stop	-4859
▁Void	-4860
▁cast	-4861
Binary	-4862
Radius	-4863
▁mView	-4864
▁stats	-4865
Columns	-4866
Routing	-4867
WebView	-4868
elocity	-4869
keHoach	-4870
▁Editor	-4871
▁window	-4872
Compound	-4873
ggestion	-4874
nnotated	-4875
▁Counter	-4876
▁Decimal	-4877
▁Profile	-4878
▁actions	-4879
▁getCode	-4880
▁MvcResult	-4881
▁getPrefix	-4882
▁getUserId	-4883
▁readObject	-4884
▁assertError	-4885
▁deserialize	-4886
▁writeString	-4887
▁ModelAndView	-4888
▁socialcoding	-4889
▁compareAndSet	-4890
▁getDescription	-4891
▁getStringValue	-4892
▁CallbackContext	-4893
▁setModifiedDate	-4894
PP	-4895
go	-4896
jb	-4897
ALL	-4898
Dev	-4899
ERT	-4900
LED	-4901
Sup	-4902
add	-4903
dap	-4904
ddm	-4905
ips	-4906
urb	-4907
web	-4908
▁&=	-4909
▁Hm	-4910
▁oc	-4911
▁ra	-4912
FACT	-4913
Pass	-4914
alle	-4915
azel	-4916
eigh	-4917
lice	-4918
▁Git	-4919
▁Pix	-4920
Aware	-4921
Recur	-4922
adoop	-4923
aunch	-4924
ework	-4925
ifest	-4926
state	-4927
uplic	-4928
▁Icon	-4929
▁Join	-4930
▁chat	-4931
▁mask	-4932
▁used	-4933
Border	-4934
Intent	-4935
Loaded	-4936
Remove	-4937
TARGET	-4938
iagram	-4939
▁Topic	-4940
▁Types	-4941
▁getAl	-4942
▁getPl	-4943
FFFFFFF	-4944
SERVICE	-4945
mbedded	-4946
ounding	-4947
raction	-4948
urbonet	-4949
▁getEnd	-4950
Redirect	-4951
Shutdown	-4952
azelcast	-4953
periment	-4954
recision	-4955
▁Control	-4956
▁getBase	-4957
▁library	-4958
Connected	-4959
Principal	-4960
Threshold	-4961
▁Customer	-4962
▁Listener	-4963
▁Prepared	-4964
▁fileName	-4965
▁getError	-4966
▁lastName	-4967
▁messages	-4968
▁isEnabled	-4969
Aggregation	-4970
▁StringUtil	-4971
▁previewing	-4972
▁getProvider	-4973
▁CordovaWebView	-4974
▁unmodifiableMap	-4975
AC	-4976
COD	-4977
OST	-4978
atL	-4979
▁Is	-4980
▁OS	-4981
▁ns	-4982
ENCE	-4983
Mail	-4984
Proc	-4985
Rank	-4986
rift	-4987
▁jni	-4988
Alive	-4989
Audit	-4990
Basic	-4991
LIENT	-4992
Stage	-4993
astic	-4994
eader	-4995
endor	-4996
istic	-4997
▁BASE	-4998
▁DATE	-4999
▁ITim	-5000
▁Step	-5001
▁mMat	-5002
Append	-5003
Master	-5004
Runner	-5005
SERVER	-5006
etails	-5007
orizon	-5008
verlay	-5009
▁Layer	-5010
▁expir	-5011
▁getID	-5012
▁owner	-5013
Strings	-5014
ingType	-5015
▁NUMBER	-5016
▁Report	-5017
▁STATUS	-5018
▁Spring	-5019
▁getTag	-5020
▁player	-5021
▁upload	-5022
ButtonId	-5023
InfoType	-5024
Verifier	-5025
entation	-5026
▁changed	-5027
▁objects	-5028
Completed	-5029
ItemPrice	-5030
▁Constant	-5031
▁Sequence	-5032
▁Template	-5033
▁getCreate	-5034
▁Attributed	-5035
▁Navigation	-5036
▁mapCommand	-5037
▁ITimedState	-5038
▁currentChart	-5039
▁mSlidingMenu	-5040
▁sqlException	-5041
▁GridDataFactory	-5042
PH	-5043
rp	-5044
ACT	-5045
Bus	-5046
Des	-5047
Hub	-5048
ROL	-5049
key	-5050
oto	-5051
▁BU	-5052
▁Ct	-5053
▁fs	-5054
Head	-5055
ajor	-5056
ampl	-5057
ffix	-5058
iber	-5059
rade	-5060
▁EOF	-5061
▁Mod	-5062
▁Tri	-5063
▁isA	-5064
▁nil	-5065
▁www	-5066
BLOCK	-5067
Cycle	-5068
TABLE	-5069
Under	-5070
aries	-5071
ators	-5072
enant	-5073
▁JDBC	-5074
▁radi	-5075
Explan	-5076
Metric	-5077
atings	-5078
▁chunk	-5079
▁delay	-5080
Attempt	-5081
Invalid	-5082
Managed	-5083
Updated	-5084
▁Parcel	-5085
▁button	-5086
▁enable	-5087
▁getCon	-5088
ReadOnly	-5089
▁DataSet	-5090
▁EPSILON	-5091
▁LogNode	-5092
▁arcrole	-5093
▁country	-5094
▁getDate	-5095
▁persist	-5096
▁section	-5097
▁subject	-5098
ATTRIBUTE	-5099
Callbacks	-5100
PointSpec	-5101
orizontal	-5102
▁Injector	-5103
▁Shopping	-5104
▁getChild	-5105
▁getQuery	-5106
▁getTable	-5107
Attachment	-5108
urchaseMap	-5109
▁dimension	-5110
▁nilReason	-5111
Initializer	-5112
▁Concurrent	-5113
▁mPurchaseMap	-5114
▁ExitPointSpec	-5115
▁DocumentBuilder	-5116
DF	-5117
sa	-5118
ux	-5119
ACK	-5120
API	-5121
FIG	-5122
Ret	-5123
com	-5124
oci	-5125
▁11	-5126
Diff	-5127
Scan	-5128
Send	-5129
VATE	-5130
etty	-5131
site	-5132
tinu	-5133
▁Api	-5134
▁COL	-5135
▁man	-5136
▁sin	-5137
Fully	-5138
agram	-5139
amily	-5140
ented	-5141
ogram	-5142
radle	-5143
urnal	-5144
words	-5145
▁Rece	-5146
▁flip	-5147
▁keep	-5148
▁same	-5149
▁spdy	-5150
Common	-5151
ENABLE	-5152
Weight	-5153
retKey	-5154
▁CORBA	-5155
▁click	-5156
▁datum	-5157
Refresh	-5158
vateKey	-5159
▁getRow	-5160
▁simple	-5161
▁states	-5162
Language	-5163
Unsigned	-5164
ierarchy	-5165
▁Texture	-5166
▁getByte	-5167
▁ordinal	-5168
Targeting	-5169
▁checksum	-5170
Management	-5171
▁IResource	-5172
▁deadBytes	-5173
▁Reflection	-5174
▁StandardXY	-5175
▁checkRange	-5176
▁isInstance	-5177
▁setVisible	-5178
▁unregister	-5179
ParameterMap	-5180
▁InputSource	-5181
▁environment	-5182
URLConnection	-5183
▁HsqlException	-5184
▁ResourceBundle	-5185
▁spdyConnection	-5186
▁updateProgress	-5187
▁previewCallback	-5188
AU	-5189
OB	-5190
RU	-5191
dp	-5192
rs	-5193
ze	-5194
MAX	-5195
iet	-5196
vcc	-5197
▁IM	-5198
▁UP	-5199
▁cv	-5200
▁mc	-5201
Adap	-5202
Cast	-5203
Pref	-5204
RANS	-5205
Urls	-5206
▁arr	-5207
▁bro	-5208
▁old	-5209
▁omg	-5210
▁ssl	-5211
Cause	-5212
INDEX	-5213
INTER	-5214
PARAM	-5215
Since	-5216
TOCOL	-5217
iness	-5218
ismet	-5219
oAuth	-5220
parse	-5221
▁DELE	-5222
▁NULL	-5223
▁Word	-5224
▁then	-5225
AndKey	-5226
Bucket	-5227
UserId	-5228
alPath	-5229
ategor	-5230
jected	-5231
▁CACHE	-5232
▁Modif	-5233
▁Phase	-5234
▁Shell	-5235
▁shape	-5236
▁users	-5237
Filters	-5238
vileged	-5239
▁Public	-5240
▁cipher	-5241
▁concat	-5242
▁getNum	-5243
▁isTrue	-5244
Handlers	-5245
Writable	-5246
istogram	-5247
requency	-5248
▁Initial	-5249
▁JOption	-5250
▁MESSAGE	-5251
▁reverse	-5252
▁setNext	-5253
Registers	-5254
Separator	-5255
StartTime	-5256
redential	-5257
▁Purchase	-5258
▁allocate	-5259
▁getEvent	-5260
▁language	-5261
▁multiply	-5262
Extensions	-5263
Streamable	-5264
▁ArrayUtil	-5265
▁Connector	-5266
▁currValue	-5267
Initialized	-5268
▁Deployment	-5269
▁ObjectName	-5270
▁sessionMap	-5271
▁setEnabled	-5272
▁JOptionPane	-5273
▁getDeclared	-5274
▁HttpResponse	-5275
▁getSelection	-5276
bershipRequest	-5277
NI	-5278
OD	-5279
RC	-5280
UC	-5281
yc	-5282
ALE	-5283
Adv	-5284
Idx	-5285
LOW	-5286
MIN	-5287
Rot	-5288
ins	-5289
now	-5290
ovy	-5291
▁Mo	-5292
▁OH	-5293
Fill	-5294
Prev	-5295
gree	-5296
icro	-5297
ison	-5298
mise	-5299
▁Der	-5300
▁For	-5301
▁Ins	-5302
▁TRA	-5303
▁uns	-5304
Audio	-5305
Prote	-5306
Video	-5307
acing	-5308
eeper	-5309
sible	-5310
▁Cert	-5311
▁FINE	-5312
▁READ	-5313
▁setD	-5314
CODING	-5315
holder	-5316
velope	-5317
▁Email	-5318
▁IType	-5319
▁seque	-5320
Balance	-5321
Created	-5322
Identif	-5323
NECTION	-5324
Program	-5325
parison	-5326
▁StatFs	-5327
▁Upload	-5328
▁before	-5329
▁events	-5330
▁getJob	-5331
TypeName	-5332
ifecycle	-5333
ographic	-5334
uplicate	-5335
▁Browser	-5336
▁setBean	-5337
▁shuffle	-5338
▁External	-5339
▁XContent	-5340
▁getModel	-5341
▁getState	-5342
▁shopping	-5343
munication	-5344
▁setUserId	-5345
amelContext	-5346
vailability	-5347
▁Assessment	-5348
▁annotation	-5349
▁tokenBegin	-5350
Intersection	-5351
▁ValueBuilder	-5352
▁defaultValue	-5353
▁listenerList	-5354
▁notSupported	-5355
ParseException	-5356
▁getAttributes	-5357
▁setCreateDate	-5358
LU	-5359
VT	-5360
pn	-5361
CRE	-5362
GIN	-5363
YST	-5364
les	-5365
ned	-5366
▁US	-5367
▁gv	-5368
▁ok	-5369
IGHT	-5370
WORK	-5371
adow	-5372
aign	-5373
bose	-5374
ours	-5375
ural	-5376
ysis	-5377
▁COM	-5378
▁Cap	-5379
▁Url	-5380
▁ctx	-5381
▁dim	-5382
▁isS	-5383
▁iss	-5384
Coord	-5385
Front	-5386
Nanos	-5387
ecess	-5388
ircle	-5389
oBack	-5390
rieve	-5391
▁Body	-5392
▁MEDI	-5393
▁Sign	-5394
▁Year	-5395
▁json	-5396
▁year	-5397
Syntax	-5398
Widget	-5399
▁mData	-5400
▁mKeys	-5401
▁tasks	-5402
Fixture	-5403
▁Member	-5404
▁holder	-5405
▁mkdirs	-5406
▁period	-5407
▁regist	-5408
▁sorted	-5409
Feedback	-5410
Required	-5411
resenter	-5412
▁Complex	-5413
▁Segment	-5414
▁profile	-5415
▁segment	-5416
▁setData	-5417
Cloneable	-5418
▁Language	-5419
▁continue	-5420
▁original	-5421
▁FileUtils	-5422
▁LocalDate	-5423
▁Principal	-5424
▁getAction	-5425
▁getResult	-5426
▁readFully	-5427
▁variables	-5428
Instruction	-5429
▁Attributes	-5430
▁deployment	-5431
▁getRuntime	-5432
▁setMessage	-5433
ErrorMessage	-5434
▁fReconciler	-5435
Specification	-5436
▁MILLISECONDS	-5437
▁CordovaPlugin	-5438
▁entityManager	-5439
entLayoutBranch	-5440
▁ToStringHelper	-5441
▁ensureCapacity	-5442
▁PublicCloneable	-5443
▁getTimeInMillis	-5444
ka	-5445
oi	-5446
ANG	-5447
DAV	-5448
Pix	-5449
Utf	-5450
arm	-5451
buf	-5452
clu	-5453
sBy	-5454
sis	-5455
▁Fl	-5456
▁co	-5457
Blob	-5458
Cert	-5459
DULE	-5460
THOD	-5461
here	-5462
ncer	-5463
▁PAR	-5464
HANDL	-5465
START	-5466
aging	-5467
andid	-5468
faces	-5469
▁MODE	-5470
▁blob	-5471
▁jdbc	-5472
▁mean	-5473
▁rank	-5474
Broker	-5475
ERENCE	-5476
Symbol	-5477
aching	-5478
gments	-5479
isting	-5480
writer	-5481
▁admin	-5482
▁after	-5483
▁files	-5484
▁isNot	-5485
▁mLast	-5486
Browser	-5487
FEATURE	-5488
Percent	-5489
ampaign	-5490
ceptors	-5491
hronous	-5492
isation	-5493
▁Camera	-5494
▁Length	-5495
▁Target	-5496
▁getSub	-5497
▁inters	-5498
▁setMax	-5499
Artifact	-5500
LongBits	-5501
Relative	-5502
ramework	-5503
▁getPage	-5504
▁support	-5505
Increment	-5506
RequestId	-5507
ification	-5508
▁Employee	-5509
▁Exchange	-5510
▁doubleTo	-5511
▁Discovery	-5512
▁autoFocus	-5513
▁completed	-5514
▁getHeader	-5515
▁isRunning	-5516
▁parseLong	-5517
▁setLength	-5518
izedMessage	-5519
▁WebElement	-5520
▁statusCode	-5521
BridgeSecret	-5522
▁certificate	-5523
▁getChildren	-5524
▁sendMessage	-5525
▁serviceName	-5526
ChangeSupport	-5527
▁StringReader	-5528
▁getAvailable	-5529
▁getResources	-5530
▁LinkedHashMap	-5531
▁proxySelector	-5532
▁sessionFactory	-5533
▁DataInputStream	-5534
▁StringTokenizer	-5535
▁setTimeInMillis	-5536
Es	-5537
tl	-5538
Lim	-5539
OFF	-5540
bed	-5541
cep	-5542
ere	-5543
gan	-5544
iom	-5545
odo	-5546
off	-5547
qtt	-5548
top	-5549
▁30	-5550
▁HE	-5551
▁NS	-5552
▁OR	-5553
▁QU	-5554
▁TH	-5555
▁ob	-5556
ONTH	-5557
Stub	-5558
nate	-5559
▁DAT	-5560
▁Des	-5561
▁day	-5562
▁sol	-5563
▁spi	-5564
Added	-5565
Break	-5566
MBean	-5567
ORTED	-5568
Phone	-5569
aemon	-5570
ather	-5571
bench	-5572
edure	-5573
tives	-5574
▁Auto	-5575
▁PATH	-5576
▁Tool	-5577
▁anim	-5578
▁cred	-5579
▁incr	-5580
▁plan	-5581
▁stub	-5582
▁tool	-5583
Calcul	-5584
rypted	-5585
status	-5586
▁Frame	-5587
▁White	-5588
▁agent	-5589
▁getAs	-5590
▁getDe	-5591
▁phone	-5592
▁range	-5593
▁world	-5594
ENABLED	-5595
Mutable	-5596
Polygon	-5597
nalyzer	-5598
▁StdOut	-5599
▁getMem	-5600
▁getPri	-5601
▁option	-5602
▁shared	-5603
▁toJson	-5604
Checksum	-5605
DAVProps	-5606
Detector	-5607
Quantity	-5608
▁ASTNode	-5609
▁Dataset	-5610
▁setLast	-5611
▁trigger	-5612
▁writeTo	-5613
Animation	-5614
Arguments	-5615
▁redirect	-5616
▁snapshot	-5617
Restricted	-5618
ValueStyle	-5619
rientation	-5620
vccVersion	-5621
▁Collector	-5622
▁SortedSet	-5623
▁connected	-5624
▁getConfig	-5625
▁getDevice	-5626
▁getServer	-5627
▁writeLock	-5628
CommaAndKey	-5629
CurrentTime	-5630
▁ByteString	-5631
▁startIndex	-5632
▁Persistence	-5633
socialActivity	-5634
▁COSDictionary	-5635
▁MessageFormat	-5636
▁setBackground	-5637
nouncementsFlag	-5638
▁mBuffersBySize	-5639
▁socketAddresses	-5640
ah	-5641
DIG	-5642
EAR	-5643
EXT	-5644
Jar	-5645
Mer	-5646
for	-5647
omm	-5648
▁RO	-5649
▁SO	-5650
▁ge	-5651
3333	-5652
Cols	-5653
Team	-5654
Zero	-5655
card	-5656
core	-5657
sive	-5658
▁Red	-5659
▁isL	-5660
▁std	-5661
Beans	-5662
Edges	-5663
Glyph	-5664
Pages	-5665
Super	-5666
ToInt	-5667
puter	-5668
roovy	-5669
usted	-5670
▁Disk	-5671
▁Info	-5672
▁Plan	-5673
▁book	-5674
▁cell	-5675
▁city	-5676
Encode	-5677
Import	-5678
Nested	-5679
Routes	-5680
Sender	-5681
urable	-5682
▁Asset	-5683
▁Chunk	-5684
▁Clone	-5685
▁Empty	-5686
▁LEVEL	-5687
▁depth	-5688
▁isLog	-5689
Adaptor	-5690
Complex	-5691
Destroy	-5692
Install	-5693
Sources	-5694
resence	-5695
▁Static	-5696
▁bottom	-5697
▁errors	-5698
▁finish	-5699
▁groups	-5700
▁matrix	-5701
▁remote	-5702
Customer	-5703
Sessions	-5704
strument	-5705
▁Polygon	-5706
▁Routing	-5707
▁SECONDS	-5708
▁forEach	-5709
▁primary	-5710
▁runtime	-5711
▁setType	-5712
▁wrapped	-5713
▁Schedule	-5714
▁entities	-5715
▁identity	-5716
▁ErrorCode	-5717
▁algorithm	-5718
Connections	-5719
▁newBuilder	-5720
ItemRenderer	-5721
Modification	-5722
ResultSetSize	-5723
▁ExecutionFlow	-5724
▁dialogMessage	-5725
▁hasMoreElements	-5726
16	-5727
VM	-5728
WE	-5729
ARY	-5730
Gui	-5731
Now	-5732
app	-5733
esh	-5734
ipe	-5735
max	-5736
omb	-5737
▁FA	-5738
▁OB	-5739
▁vn	-5740
Safe	-5741
etic	-5742
reet	-5743
teps	-5744
ways	-5745
▁Per	-5746
▁den	-5747
▁dtt	-5748
▁ren	-5749
Alloc	-5750
Hints	-5751
Party	-5752
Roles	-5753
YSTEM	-5754
print	-5755
▁BYTE	-5756
▁Conf	-5757
▁FLAG	-5758
▁Flow	-5759
▁JIRA	-5760
▁Keys	-5761
▁Weak	-5762
▁icon	-5763
▁mMax	-5764
Cancel	-5765
Enable	-5766
Expand	-5767
Person	-5768
▁Evalu	-5769
▁MBean	-5770
▁graph	-5771
▁setup	-5772
Confirm	-5773
Measure	-5774
▁BitSet	-5775
▁Linear	-5776
▁Marker	-5777
▁Region	-5778
▁SQLite	-5779
▁bounds	-5780
▁factor	-5781
▁getRes	-5782
▁putInt	-5783
PROPERTY	-5784
PoolSize	-5785
▁IFigure	-5786
▁Mockito	-5787
▁Numeric	-5788
▁Promise	-5789
▁binding	-5790
▁getBody	-5791
▁manager	-5792
▁receive	-5793
▁restore	-5794
DataEvent	-5795
Delimiter	-5796
Providers	-5797
Scheduler	-5798
Singleton	-5799
Variables	-5800
oreground	-5801
ullParser	-5802
▁TestCase	-5803
▁complete	-5804
▁getProxy	-5805
▁warnings	-5806
Preference	-5807
Projection	-5808
▁Direction	-5809
▁Directory	-5810
▁UserGroup	-5811
▁arguments	-5812
▁configure	-5813
▁getModule	-5814
▁getRemote	-5815
▁writeByte	-5816
Association	-5817
TrackerPath	-5818
▁thenReturn	-5819
ationContext	-5820
▁Interceptor	-5821
▁VirtualFile	-5822
▁getSecurity	-5823
▁getUserUuid	-5824
▁getVertices	-5825
▁localizable	-5826
▁nextElement	-5827
▁getDictionary	-5828
▁getExpression	-5829
PreviewCallback	-5830
▁ParseException	-5831
▁URLClassLoader	-5832
IndexOutOfBounds	-5833
azelcastInstance	-5834
AW	-5835
MD	-5836
NN	-5837
VO	-5838
du	-5839
FOL	-5840
FOR	-5841
IDs	-5842
IGH	-5843
MOU	-5844
aml	-5845
azy	-5846
eme	-5847
▁AR	-5848
▁CH	-5849
▁Us	-5850
FLAG	-5851
LOAD	-5852
Plus	-5853
Prop	-5854
RECT	-5855
Sink	-5856
izes	-5857
▁ASN	-5858
▁CUR	-5859
▁Mul	-5860
▁inf	-5861
Alias	-5862
Decor	-5863
Depth	-5864
Expir	-5865
Fault	-5866
LOSED	-5867
Month	-5868
NSION	-5869
ORITY	-5870
Phase	-5871
anode	-5872
arbon	-5873
arter	-5874
bound	-5875
inate	-5876
izard	-5877
▁Axis	-5878
▁Jdbc	-5879
▁Root	-5880
▁rate	-5881
Checks	-5882
Global	-5883
Models	-5884
Normal	-5885
losure	-5886
▁EList	-5887
▁JobID	-5888
▁Retry	-5889
▁Spark	-5890
▁props	-5891
▁scene	-5892
CONTENT	-5893
Checked	-5894
Radians	-5895
Section	-5896
Windows	-5897
▁MINUTE	-5898
▁Stroke	-5899
▁branch	-5900
▁getNot	-5901
▁memory	-5902
▁millis	-5903
▁vertex	-5904
AsStream	-5905
PERATION	-5906
Patterns	-5907
Severity	-5908
structor	-5909
▁INITIAL	-5910
▁Metrics	-5911
▁Pointer	-5912
▁TreeSet	-5913
▁adwords	-5914
▁disable	-5915
▁getFull	-5916
▁setItem	-5917
Activator	-5918
Indicator	-5919
Recipient	-5920
▁FileInfo	-5921
▁getTotal	-5922
Accessible	-5923
Registered	-5924
Resolution	-5925
Structured	-5926
▁WebDriver	-5927
▁getBuffer	-5928
▁loadClass	-5929
▁nativeGet	-5930
▁HttpMethod	-5931
▁Persistent	-5932
▁Throwables	-5933
▁dateFormat	-5934
▁setGroupId	-5935
nameVerifier	-5936
▁RequestBody	-5937
▁Transformer	-5938
▁getUserName	-5939
▁savedResult	-5940
▁setUserUuid	-5941
ModelListener	-5942
▁DistanceUnit	-5943
▁RequestParam	-5944
▁addClasspath	-5945
▁subscription	-5946
Implementation	-5947
Representation	-5948
eaderInterface	-5949
▁EventListener	-5950
LC	-5951
TA	-5952
Asc	-5953
Cal	-5954
Low	-5955
asc	-5956
eak	-5957
iem	-5958
ify	-5959
▁TO	-5960
ATCH	-5961
BITS	-5962
CTED	-5963
Else	-5964
Join	-5965
MARK	-5966
Push	-5967
irty	-5968
paid	-5969
ramm	-5970
▁256	-5971
▁360	-5972
▁Det	-5973
▁Exp	-5974
▁Hex	-5975
▁hit	-5976
▁pid	-5977
▁tod	-5978
ATIVE	-5979
Fixed	-5980
ITEMS	-5981
array	-5982
dText	-5983
field	-5984
oster	-5985
phone	-5986
▁Part	-5987
▁Push	-5988
▁SAML	-5989
▁Soft	-5990
▁TIME	-5991
▁XMPP	-5992
▁inet	-5993
▁ship	-5994
Shards	-5995
Simple	-5996
orrect	-5997
parent	-5998
▁Actor	-5999
▁Cloud	-6000
▁IFile	-6001
▁align	-6002
▁fixed	-6003
▁latch	-6004
▁trunc	-6005
InBytes	-6006
Require	-6007
TIMEOUT	-6008
nalysis	-6009
tinuous	-6010
▁Driver	-6011
▁Errors	-6012
▁colors	-6013
▁export	-6014
▁toFile	-6015
Charsets	-6016
DataItem	-6017
FileRank	-6018
Policies	-6019
ibernate	-6020
password	-6021
▁INVALID	-6022
▁PVector	-6023
▁Strings	-6024
▁control	-6025
▁endTime	-6026
▁getExec	-6027
Connector	-6028
Locations	-6029
XYDataset	-6030
▁Duration	-6031
▁Messages	-6032
▁canceled	-6033
▁revision	-6034
Encryption	-6035
ableFuture	-6036
alEditPart	-6037
▁canonical	-6038
▁formatter	-6039
▁getActive	-6040
▁processor	-6041
▁setRender	-6042
▁threadVar	-6043
▁Activation	-6044
▁readString	-6045
▁saslClient	-6046
▁Constructor	-6047
▁CordovaArgs	-6048
▁Credentials	-6049
▁IStructured	-6050
▁Instruction	-6051
▁contentType	-6052
▁createEntry	-6053
▁getNumberOf	-6054
▁inputStream	-6055
Authorization	-6056
▁addAttribute	-6057
▁getExtension	-6058
▁getNamespace	-6059
▁getReference	-6060
▁getTimestamp	-6061
▁setParameter	-6062
▁getContentType	-6063
15	-6064
GL	-6065
PC	-6066
bb	-6067
ds	-6068
DED	-6069
Ext	-6070
LIC	-6071
Ops	-6072
Rad	-6073
Squ	-6074
ToP	-6075
edi	-6076
foo	-6077
iec	-6078
kit	-6079
ndo	-6080
oti	-6081
yst	-6082
▁64	-6083
▁Be	-6084
▁EN	-6085
▁es	-6086
▁mE	-6087
IDTH	-6088
Idle	-6089
PREF	-6090
byte	-6091
echn	-6092
ider	-6093
ific	-6094
ouch	-6095
sMap	-6096
swer	-6097
urve	-6098
▁Ign	-6099
▁Inc	-6100
▁Pdf	-6101
▁SDK	-6102
▁lat	-6103
▁was	-6104
TRANS	-6105
atLng	-6106
ement	-6107
idMap	-6108
omial	-6109
orary	-6110
▁Back	-6111
▁Func	-6112
▁Real	-6113
▁TREE	-6114
▁cons	-6115
▁edge	-6116
▁game	-6117
▁note	-6118
FOLDER	-6119
ampler	-6120
icture	-6121
nowled	-6122
scribe	-6123
tering	-6124
▁alias	-6125
▁chart	-6126
▁edges	-6127
▁paint	-6128
▁topic	-6129
Compati	-6130
EventId	-6131
Release	-6132
Student	-6133
Warning	-6134
allback	-6135
connect	-6136
itoring	-6137
▁Global	-6138
▁OUTLET	-6139
▁Period	-6140
▁closed	-6141
▁editor	-6142
▁loader	-6143
▁orElse	-6144
▁person	-6145
▁talend	-6146
▁volume	-6147
Exchange	-6148
LICATION	-6149
Question	-6150
ectories	-6151
ingClass	-6152
▁IOUtils	-6153
▁WARNING	-6154
▁csidMap	-6155
▁getList	-6156
▁logging	-6157
▁package	-6158
▁publish	-6159
Authority	-6160
Rectangle	-6161
ismetData	-6162
▁Compiled	-6163
▁IGraphic	-6164
▁ItemType	-6165
▁Multiple	-6166
▁clientId	-6167
▁delivery	-6168
▁download	-6169
▁priority	-6170
letFeature	-6171
▁Scheduler	-6172
▁convertTo	-6173
▁countDown	-6174
▁generated	-6175
▁getLayout	-6176
▁isNotNull	-6177
▁processed	-6178
▁constraint	-6179
▁invalidate	-6180
▁mSelection	-6181
▁myElements	-6182
▁MessageType	-6183
▁addProperty	-6184
▁nextTlsMode	-6185
StringBuilder	-6186
▁EOFException	-6187
▁FileNotFound	-6188
▁parseBoolean	-6189
▁ExifInterface	-6190
▁ReferenceType	-6191
▁WeakReference	-6192
▁getProperties	-6193
▁filterStatement	-6194
AV	-6195
BL	-6196
JS	-6197
MT	-6198
YN	-6199
ai	-6200
pm	-6201
ra	-6202
END	-6203
ERY	-6204
bit	-6205
een	-6206
iki	-6207
lib	-6208
num	-6209
uce	-6210
ues	-6211
▁OP	-6212
▁Py	-6213
▁Sm	-6214
Home	-6215
Tail	-6216
aper	-6217
nced	-6218
▁DDM	-6219
▁NaN	-6220
▁Orb	-6221
▁PRI	-6222
▁Pie	-6223
▁Sim	-6224
▁ejb	-6225
▁mod	-6226
▁off	-6227
▁oss	-6228
Digit	-6229
Dirty	-6230
Latch	-6231
POINT	-6232
Trunc	-6233
inter	-6234
ollow	-6235
usion	-6236
vable	-6237
▁Chat	-6238
▁Find	-6239
▁NORM	-6240
▁ROOT	-6241
▁attr	-6242
▁dist	-6243
▁have	-6244
▁meta	-6245
▁need	-6246
▁pack	-6247
▁pred	-6248
Cipher	-6249
ETWORK	-6250
apoint	-6251
emento	-6252
imized	-6253
▁Compl	-6254
▁Ecore	-6255
▁KType	-6256
▁MEDIA	-6257
▁Money	-6258
▁StdIn	-6259
▁Write	-6260
▁spark	-6261
▁xpath	-6262
Logging	-6263
Pending	-6264
Problem	-6265
Scanner	-6266
Subject	-6267
astream	-6268
auncher	-6269
ilation	-6270
pedList	-6271
▁Ignite	-6272
▁Legacy	-6273
▁isFile	-6274
▁origin	-6275
▁reason	-6276
▁scheme	-6277
▁weight	-6278
Creation	-6279
INSTANCE	-6280
Topology	-6281
andidate	-6282
igration	-6283
position	-6284
▁encrypt	-6285
▁getLine	-6286
▁putLong	-6287
▁features	-6288
▁pageSize	-6289
▁readLock	-6290
▁retrieve	-6291
Dispatcher	-6292
ReadObject	-6293
oordinator	-6294
▁Algorithm	-6295
▁Processor	-6296
▁getSerial	-6297
▁listFiles	-6298
▁startDate	-6299
▁statement	-6300
▁unmarshal	-6301
▁FileWriter	-6302
▁Identifier	-6303
▁XAResource	-6304
▁getGroupId	-6305
▁getOptions	-6306
▁toPlatform	-6307
Capabilities	-6308
▁createValue	-6309
▁getContents	-6310
▁getMimeType	-6311
BlockingQueue	-6312
▁ObjectMapper	-6313
ConstraintType	-6314
▁CoreException	-6315
▁NameValuePair	-6316
▁OrbRestricted	-6317
▁getInputStream	-6318
▁registerPrefix	-6319
▁TimeZoneWrapper	-6320
Cr	-6321
Nu	-6322
Vi	-6323
fx	-6324
xf	-6325
ARE	-6326
Hit	-6327
INK	-6328
NEW	-6329
REA	-6330
Tri	-6331
UFF	-6332
UTF	-6333
amb	-6334
len	-6335
▁13	-6336
▁50	-6337
▁pq	-6338
▁sm	-6339
Comm	-6340
DENT	-6341
Days	-6342
Heap	-6343
Jobs	-6344
NULL	-6345
PARK	-6346
TEST	-6347
acao	-6348
erve	-6349
iece	-6350
isor	-6351
loor	-6352
olyn	-6353
task	-6354
ummy	-6355
utex	-6356
uxio	-6357
wsrp	-6358
▁<<=	-6359
▁ADD	-6360
▁Cre	-6361
▁ENG	-6362
▁Ind	-6363
▁Sky	-6364
▁Tab	-6365
▁net	-6366
▁rew	-6367
Extra	-6368
Infos	-6369
Scene	-6370
UMENT	-6371
Users	-6372
aling	-6373
aniti	-6374
argin	-6375
ckets	-6376
emper	-6377
gable	-6378
sType	-6379
ulate	-6380
▁cost	-6381
▁setN	-6382
▁spec	-6383
Tracks	-6384
Vendor	-6385
column	-6386
member	-6387
uspend	-6388
values	-6389
▁board	-6390
▁cards	-6391
▁dirty	-6392
▁getBy	-6393
▁named	-6394
CHARSET	-6395
Deleted	-6396
ELEMENT	-6397
Portlet	-6398
Streams	-6399
overage	-6400
▁CLIENT	-6401
▁Course	-6402
▁MODULE	-6403
▁Normal	-6404
▁RESULT	-6405
▁Regist	-6406
▁Statis	-6407
▁common	-6408
▁effect	-6409
▁getUrl	-6410
▁rotate	-6411
▁static	-6412
PROTOCOL	-6413
Rotation	-6414
allEntry	-6415
ffective	-6416
nowledge	-6417
partment	-6418
▁Dynamic	-6419
▁Itemset	-6420
▁allowed	-6421
▁checked	-6422
▁feature	-6423
▁history	-6424
▁isWhite	-6425
▁started	-6426
▁verbose	-6427
SetBranch	-6428
TokenType	-6429
ingDomain	-6430
lightTime	-6431
olynomial	-6432
▁Currency	-6433
▁Drawable	-6434
▁itemsets	-6435
▁mService	-6436
▁rollback	-6437
▁sections	-6438
ActionType	-6439
References	-6440
emperature	-6441
▁Iterables	-6442
▁getMarker	-6443
▁newString	-6444
▁notifyAll	-6445
▁translate	-6446
Annotations	-6447
▁PsiElement	-6448
AreaRenderer	-6449
▁HttpHeaders	-6450
ProgressLabel	-6451
▁fireProperty	-6452
ervedInstances	-6453
▁RevisionUtils	-6454
▁getCreateDate	-6455
▁getMethodName	-6456
▁HashMappedList	-6457
▁getServiceName	-6458
▁ExecutorService	-6459
▁securityHandler	-6460
EP	-6461
TL	-6462
ij	-6463
my	-6464
ok	-6465
vm	-6466
wo	-6467
ASH	-6468
Arr	-6469
Mac	-6470
Sen	-6471
USE	-6472
alk	-6473
bem	-6474
och	-6475
pol	-6476
▁BO	-6477
▁PO	-6478
Bill	-6479
HTTP	-6480
High	-6481
Insn	-6482
NTED	-6483
Over	-6484
Side	-6485
laim	-6486
lias	-6487
ness	-6488
ship	-6489
tegr	-6490
yper	-6491
▁END	-6492
▁Mac	-6493
▁POS	-6494
▁cos	-6495
▁gvt	-6496
▁mdm	-6497
▁now	-6498
▁sup	-6499
ANDOM	-6500
Ready	-6501
Sheet	-6502
UFFIX	-6503
ables	-6504
inger	-6505
lying	-6506
posal	-6507
store	-6508
▁Ldap	-6509
▁Mode	-6510
▁ZERO	-6511
▁feed	-6512
▁leaf	-6513
▁mMap	-6514
Choice	-6515
Cookie	-6516
Export	-6517
LAYOUT	-6518
METHOD	-6519
Suites	-6520
urface	-6521
▁Glyph	-6522
▁SPARK	-6523
▁Store	-6524
▁added	-6525
▁getSu	-6526
▁prote	-6527
▁ready	-6528
▁scope	-6529
▁under	-6530
FACTORY	-6531
avorite	-6532
context	-6533
▁Canvas	-6534
▁Dialog	-6535
▁Lookup	-6536
▁Router	-6537
▁Sample	-6538
▁Scheme	-6539
▁Worker	-6540
▁actual	-6541
▁center	-6542
▁helper	-6543
▁javafx	-6544
▁locate	-6545
▁mState	-6546
▁userId	-6547
Channels	-6548
Decision	-6549
Features	-6550
Gradient	-6551
Rollback	-6552
TypeInfo	-6553
UiThread	-6554
Versions	-6555
fficient	-6556
legation	-6557
volution	-6558
▁Current	-6559
▁General	-6560
▁Portlet	-6561
▁REQUEST	-6562
▁classes	-6563
▁dataset	-6564
▁getFont	-6565
▁grantee	-6566
▁hasText	-6567
▁monitor	-6568
▁plugins	-6569
▁visible	-6570
Collector	-6571
Criterion	-6572
Highlight	-6573
PolicyRel	-6574
Scrolling	-6575
▁DateUtil	-6576
▁Modifier	-6577
▁PageText	-6578
▁Reaction	-6579
▁TestUtil	-6580
▁Transfer	-6581
▁Whitebox	-6582
▁dateTime	-6583
▁finished	-6584
▁getColor	-6585
DataSource	-6586
Dimensions	-6587
▁ClassCast	-6588
▁PathParam	-6589
▁Primitive	-6590
▁PublicKey	-6591
▁getEntity	-6592
▁lastEvent	-6593
▁partition	-6594
Constraints	-6595
Explanation	-6596
Placeholder	-6597
▁TypedValue	-6598
▁comparator	-6599
▁components	-6600
▁emptyItems	-6601
▁fromString	-6602
DaylightTime	-6603
TimeZoneList	-6604
▁Aggregation	-6605
▁BeanFactory	-6606
▁toJSONArray	-6607
▁BinaryBitmap	-6608
▁ImmutableSet	-6609
▁ObjectObject	-6610
▁TimeZoneBean	-6611
▁notification	-6612
▁pluginManager	-6613
▁BufferedWriter	-6614
▁BytesReference	-6615
▁loadStatechart	-6616
RuntimeException	-6617
▁getValueBinding	-6618
"'	-6619
22	-6620
Br	-6621
GN	-6622
Sl	-6623
fc	-6624
gt	-6625
Abs	-6626
FSB	-6627
NUM	-6628
Net	-6629
OWN	-6630
TAG	-6631
UST	-6632
aus	-6633
aze	-6634
dfs	-6635
ees	-6636
udo	-6637
▁DT	-6638
ALSE	-6639
HTML	-6640
Move	-6641
RAME	-6642
Refs	-6643
Sinh	-6644
Than	-6645
Whis	-6646
oned	-6647
uate	-6648
▁'"'	-6649
▁123	-6650
▁Day	-6651
▁MAR	-6652
▁Reg	-6653
▁bus	-6654
▁uid	-6655
Named	-6656
Regex	-6657
Speed	-6658
Views	-6659
XPath	-6660
eSinh	-6661
eighb	-6662
later	-6663
▁10.0	-6664
▁LAST	-6665
▁OPEN	-6666
▁Ship	-6667
▁area	-6668
▁getI	-6669
▁peer	-6670
▁qual	-6671
▁scan	-6672
▁self	-6673
Arrays	-6674
Colors	-6675
Getter	-6676
Images	-6677
LOGGER	-6678
Labels	-6679
Linked	-6680
Needed	-6681
SECOND	-6682
Suffix	-6683
arning	-6684
atable	-6685
ffffff	-6686
ingKey	-6687
layout	-6688
offset	-6689
ookies	-6690
rinter	-6691
rottle	-6692
system	-6693
▁CLASS	-6694
▁Chain	-6695
▁INDEX	-6696
▁codec	-6697
▁floor	-6698
▁major	-6699
▁trust	-6700
▁tuple	-6701
AndWhis	-6702
Instant	-6703
NETWORK	-6704
OrEmpty	-6705
Without	-6706
address	-6707
plement	-6708
▁ACTION	-6709
▁ESIGet	-6710
▁Import	-6711
▁Symbol	-6712
▁labels	-6713
▁radius	-6714
Cleaning	-6715
ENCODING	-6716
InnerSet	-6717
TestUtil	-6718
ersisted	-6719
▁Library	-6720
▁Mapping	-6721
▁actuate	-6722
▁forward	-6723
Composite	-6724
Functions	-6725
Hierarchy	-6726
OPERATION	-6727
PublicKey	-6728
Qualifier	-6729
Truncated	-6730
▁BytesRef	-6731
▁Relation	-6732
▁addFirst	-6733
▁dispatch	-6734
▁emptyMap	-6735
▁external	-6736
▁getItems	-6737
▁getShort	-6738
▁mContext	-6739
▁quantity	-6740
▁readByte	-6741
▁readOnly	-6742
▁setState	-6743
AndWhisker	-6744
UpperBound	-6745
orrelation	-6746
▁DateUtils	-6747
▁Inventory	-6748
▁RubyClass	-6749
▁SecretKey	-6750
▁converter	-6751
ChangeGroup	-6752
▁Completion	-6753
▁Conversion	-6754
▁Encryption	-6755
▁FileHelper	-6756
▁HttpClient	-6757
▁SelectItem	-6758
▁TimePeriod	-6759
▁setHandler	-6760
▁webservice	-6761
▁createEmpty	-6762
▁findElement	-6763
▁getRealPath	-6764
▁setLocation	-6765
▁PacketBuffer	-6766
▁Subscription	-6767
▁targetSearch	-6768
InterfaceScope	-6769
IntervalSeries	-6770
▁ClassNotFound	-6771
CleaningTracker	-6772
▁ChangeListener	-6773
▁sessionIdCount	-6774
▁ConnectionEvent	-6775
▁otherAttributes	-6776
CS	-6777
Ep	-6778
PS	-6779
ii	-6780
pu	-6781
Age	-6782
Cat	-6783
DOM	-6784
Opt	-6785
Reg	-6786
UPP	-6787
bin	-6788
cer	-6789
irc	-6790
olr	-6791
tle	-6792
▁JR	-6793
▁td	-6794
ATED	-6795
BACK	-6796
Choo	-6797
Hook	-6798
Nuoc	-6799
ONLY	-6800
Pack	-6801
Repo	-6802
aker	-6803
ooth	-6804
rees	-6805
▁Cst	-6806
▁New	-6807
▁Sip	-6808
▁env	-6809
LUGIN	-6810
Links	-6811
Optim	-6812
Setup	-6813
Trust	-6814
alect	-6815
aused	-6816
illed	-6817
oupon	-6818
poned	-6819
▁Atom	-6820
▁Wrap	-6821
▁bill	-6822
▁getZ	-6823
▁isOn	-6824
▁over	-6825
▁rand	-6826
▁safe	-6827
Backup	-6828
Compat	-6829
DIGITS	-6830
Decode	-6831
Legend	-6832
Limits	-6833
PARENT	-6834
cluded	-6835
losing	-6836
rammar	-6837
ysical	-6838
▁TRACE	-6839
▁beans	-6840
▁mutex	-6841
Changes	-6842
Charset	-6843
Checker	-6844
Generic	-6845
MOUNTED	-6846
PRIVATE	-6847
REQUEST	-6848
Updates	-6849
element	-6850
itional	-6851
mission	-6852
utation	-6853
▁Effect	-6854
▁Engine	-6855
▁Nested	-6856
▁SEVERE	-6857
▁counts	-6858
▁intern	-6859
▁merged	-6860
▁points	-6861
Download	-6862
PRIORITY	-6863
Reporter	-6864
UPPORTED	-6865
alformed	-6866
ashEntry	-6867
▁Diagram	-6868
▁Missing	-6869
▁ShardId	-6870
▁SimpleH	-6871
▁arrange	-6872
▁charset	-6873
▁getTest	-6874
▁getView	-6875
▁inverse	-6876
▁mBuffer	-6877
▁mWriter	-6878
▁measure	-6879
ValueType	-6880
efficient	-6881
iagnostic	-6882
▁COSArray	-6883
▁Password	-6884
▁Pipeline	-6885
▁artifact	-6886
▁deleteOn	-6887
▁getFloat	-6888
▁graphics	-6889
▁isActive	-6890
▁setTitle	-6891
Credential	-6892
ingService	-6893
oundingBox	-6894
▁DataInput	-6895
▁IpAddress	-6896
▁logwriter	-6897
▁minimized	-6898
▁setPrefix	-6899
InfoMessage	-6900
ierarchical	-6901
laringClass	-6902
▁dictionary	-6903
▁disconnect	-6904
▁mNativePix	-6905
▁messageLog	-6906
▁processing	-6907
StorageState	-6908
▁ContentType	-6909
▁HttpMessage	-6910
▁getActivity	-6911
ParserFactory	-6912
▁Configurable	-6913
▁errorMessage	-6914
AccessIdentity	-6915
▁getStackTrace	-6916
▁setForeground	-6917
StorageDirectory	-6918
▁TransportServer	-6919
▁executorService	-6920
▁getModifiedDate	-6921
EC	-6922
IV	-6923
Tx	-6924
dr	-6925
mx	-6926
201	-6927
ATI	-6928
Dto	-6929
GOR	-6930
KEN	-6931
NCE	-6932
aff	-6933
exp	-6934
mos	-6935
ral	-6936
▁14	-6937
▁AU	-6938
▁Ai	-6939
▁El	-6940
▁WH	-6941
▁rm	-6942
Coll	-6943
GIST	-6944
HECK	-6945
Live	-6946
Perm	-6947
Rati	-6948
TIFI	-6949
This	-6950
VIEW	-6951
Year	-6952
aybe	-6953
feed	-6954
less	-6955
umin	-6956
▁ORB	-6957
▁SWT	-6958
▁crc	-6959
▁det	-6960
▁tax	-6961
Alert	-6962
Enfor	-6963
LIMIT	-6964
Retry	-6965
affic	-6966
alanc	-6967
clude	-6968
event	-6969
iance	-6970
oggle	-6971
ooper	-6972
otype	-6973
param	-6974
plica	-6975
▁HIGH	-6976
▁Help	-6977
▁LEFT	-6978
▁LINE	-6979
▁Mail	-6980
▁OHLC	-6981
▁eTag	-6982
▁eval	-6983
▁high	-6984
▁math	-6985
▁pair	-6986
▁seed	-6987
Cached	-6988
Ranges	-6989
Shared	-6990
VeSinh	-6991
active	-6992
ibling	-6993
iemDem	-6994
plicit	-6995
sitive	-6996
▁CHECK	-6997
▁actor	-6998
▁alert	-6999
▁cloud	-7000
▁getSt	-7001
▁green	-7002
▁mName	-7003
Country	-7004
Replace	-7005
Working	-7006
account	-7007
service	-7008
▁Digest	-7009
▁Mapper	-7010
▁Sparse	-7011
▁expect	-7012
▁getBit	-7013
▁import	-7014
▁isOpen	-7015
▁mapper	-7016
▁runner	-7017
▁shadow	-7018
▁worker	-7019
Abstract	-7020
Contains	-7021
HANDLERS	-7022
Multiple	-7023
ferenced	-7024
nnotator	-7025
uminance	-7026
umulator	-7027
▁Company	-7028
▁getKind	-7029
▁isTrace	-7030
▁maxSize	-7031
▁payment	-7032
▁setLong	-7033
DirectBuf	-7034
OrderItem	-7035
TableName	-7036
userGroup	-7037
versation	-7038
▁HttpHost	-7039
▁INTERNAL	-7040
▁Matchers	-7041
▁NodeList	-7042
▁Readable	-7043
▁currency	-7044
▁getToken	-7045
▁modified	-7046
▁operator	-7047
▁received	-7048
Assignment	-7049
Calculator	-7050
ingContext	-7051
▁BitMatrix	-7052
▁EcoreUtil	-7053
▁Malformed	-7054
▁Selection	-7055
▁TextUtils	-7056
▁generator	-7057
▁getOutput	-7058
▁getRandom	-7059
▁getScheme	-7060
▁modifiers	-7061
▁sInstance	-7062
▁sequencer	-7063
▁supported	-7064
▁threshold	-7065
actInstance	-7066
▁Continuous	-7067
▁Controller	-7068
▁DataOutput	-7069
▁nextDouble	-7070
▁putBoolean	-7071
▁validation	-7072
Confirmation	-7073
Descriptions	-7074
▁CommandLine	-7075
SecurityGroup	-7076
ographicPoint	-7077
▁ShardRouting	-7078
▁StructMember	-7079
▁getCharacter	-7080
▁searchResult	-7081
Transformation	-7082
▁CategoryLabel	-7083
▁ClarionString	-7084
▁HandlerMethod	-7085
▁HsqlByteArray	-7086
▁getSessionMap	-7087
SyntaxException	-7088
ingDistribution	-7089
ressedDirectBuf	-7090
▁SQLiteDatabase	-7091
▁SessionFactory	-7092
▁NoSuchAlgorithm	-7093
▁ReflectionUtils	-7094
▁SecurityManager	-7095
▁XContentBuilder	-7096
CI	-7097
We	-7098
dn	-7099
ru	-7100
ts	-7101
DAY	-7102
Grp	-7103
LAB	-7104
Old	-7105
des	-7106
isc	-7107
ose	-7108
ula	-7109
ulk	-7110
▁AP	-7111
▁Op	-7112
▁mD	-7113
SCHE	-7114
Spot	-7115
Tile	-7116
WORD	-7117
Wbem	-7118
blog	-7119
come	-7120
illi	-7121
lier	-7122
ngth	-7123
urge	-7124
▁API	-7125
▁Env	-7126
▁GET	-7127
▁GVT	-7128
▁LEN	-7129
▁Lex	-7130
▁Max	-7131
▁adj	-7132
AWARE	-7133
EVENT	-7134
GROUP	-7135
PROXY	-7136
Schem	-7137
World	-7138
first	-7139
group	-7140
ixels	-7141
rames	-7142
timap	-7143
valid	-7144
▁High	-7145
▁Mqtt	-7146
▁Soap	-7147
▁isRe	-7148
▁tile	-7149
Absent	-7150
Aspect	-7151
OfType	-7152
Parcel	-7153
etween	-7154
ferred	-7155
▁FALSE	-7156
▁MType	-7157
▁Techn	-7158
▁axiom	-7159
▁clazz	-7160
▁lines	-7161
▁mouse	-7162
▁sound	-7163
▁stage	-7164
▁usage	-7165
CONTEXT	-7166
Payload	-7167
Private	-7168
Sibling	-7169
Utility	-7170
Written	-7171
ardware	-7172
▁PREFIX	-7173
▁mCache	-7174
▁setInt	-7175
▁stdOut	-7176
▁tTable	-7177
Supplier	-7178
Workflow	-7179
umerator	-7180
▁Adapter	-7181
▁EnumSet	-7182
▁Patient	-7183
▁changes	-7184
▁filters	-7185
▁missing	-7186
AndValues	-7187
ErrorCode	-7188
ViewModel	-7189
Workspace	-7190
ategories	-7191
▁Compiler	-7192
▁Embedded	-7193
▁getGener	-7194
▁truncate	-7195
Conversion	-7196
allyAppend	-7197
▁addAction	-7198
▁highlight	-7199
▁intersect	-7200
▁returnval	-7201
▁setString	-7202
FileVersion	-7203
FrontOrigin	-7204
ReturnValue	-7205
▁Invocation	-7206
▁Preference	-7207
▁encryption	-7208
▁extensions	-7209
▁lineNumber	-7210
▁networking	-7211
▁successful	-7212
Unmarshaller	-7213
▁NameAddress	-7214
▁OMConstants	-7215
▁SystemClock	-7216
▁getElements	-7217
▁logInternal	-7218
▁resetTables	-7219
Notifications	-7220
strumentation	-7221
▁Hierarchical	-7222
▁ImmutableMap	-7223
▁SimpleMatrix	-7224
BeanDefinition	-7225
uminanceSource	-7226
EventAttributes	-7227
allyAppendComma	-7228
ooledConnection	-7229
▁TypeDescriptor	-7230
▁addInfoMessage	-7231
▁namesAndValues	-7232
NetworkInterface	-7233
▁IJavaScriptUnit	-7234
▁SerialUtilities	-7235
23	-7236
:'	-7237
UD	-7238
eh	-7239
gp	-7240
sd	-7241
502	-7242
COM	-7243
Ctx	-7244
MPL	-7245
Mod	-7246
bar	-7247
lem	-7248
rib	-7249
▁AN	-7250
▁Am	-7251
▁DL	-7252
▁LO	-7253
▁VI	-7254
▁ev	-7255
▁hm	-7256
▁it	-7257
ANGE	-7258
Bind	-7259
Expr	-7260
ITHM	-7261
LOAT	-7262
Life	-7263
Loop	-7264
NONE	-7265
RENT	-7266
SCRI	-7267
SIDE	-7268
Skip	-7269
Stat	-7270
afka	-7271
ants	-7272
book	-7273
ehic	-7274
ligh	-7275
node	-7276
poll	-7277
▁':'	-7278
▁500	-7279
▁CRE	-7280
▁Gen	-7281
▁Jar	-7282
▁RGB	-7283
▁Rpc	-7284
▁equ	-7285
▁msg	-7286
ANNOT	-7287
Deque	-7288
IMAGE	-7289
Quota	-7290
TOKEN	-7291
acted	-7292
ambda	-7293
dater	-7294
ecked	-7295
igits	-7296
▁Fail	-7297
▁Jndi	-7298
▁PORT	-7299
▁Sasl	-7300
▁hide	-7301
▁more	-7302
▁setB	-7303
▁tabs	-7304
Counts	-7305
Endian	-7306
SUFFIX	-7307
Sorter	-7308
Submit	-7309
ToDate	-7310
agraph	-7311
ainter	-7312
idence	-7313
loader	-7314
tendee	-7315
▁MatOf	-7316
▁Paths	-7317
▁decor	-7318
▁incom	-7319
AsBytes	-7320
Chooser	-7321
ForType	-7322
GORITHM	-7323
Include	-7324
Prepaid	-7325
Primary	-7326
edImage	-7327
pressor	-7328
project	-7329
▁Amazon	-7330
▁COMPLE	-7331
▁adjust	-7332
▁getDir	-7333
▁printf	-7334
▁recent	-7335
▁sender	-7336
▁symbol	-7337
▁toList	-7338
▁unsafe	-7339
Enforcer	-7340
Failures	-7341
IfAbsent	-7342
Iterable	-7343
Modifier	-7344
Username	-7345
angement	-7346
▁Barcode	-7347
▁Decoder	-7348
▁catalog	-7349
▁cleanup	-7350
▁getHttp	-7351
▁getUuid	-7352
▁percent	-7353
▁records	-7354
▁spiImpl	-7355
▁student	-7356
Assertion	-7357
Factories	-7358
Immutable	-7359
Recursive	-7360
Remaining	-7361
enticated	-7362
ggestions	-7363
kaleoNode	-7364
▁Argument	-7365
▁CertPath	-7366
▁Criteria	-7367
▁DateTick	-7368
▁Delivery	-7369
▁HsqlName	-7370
▁bitCount	-7371
▁contents	-7372
▁fragment	-7373
▁getKaleo	-7374
▁getModif	-7375
▁handlers	-7376
▁selector	-7377
Configurer	-7378
IssueCount	-7379
Monitoring	-7380
PrimaryKey	-7381
Subscriber	-7382
ThreadPool	-7383
Translator	-7384
estination	-7385
▁Converter	-7386
▁ELContext	-7387
▁Partition	-7388
▁byteArray	-7389
▁createNew	-7390
▁directory	-7391
▁getBounds	-7392
▁getCached	-7393
▁getLocale	-7394
▁myVisited	-7395
▁nextBytes	-7396
▁scheduled	-7397
Coordinates	-7398
MessageType	-7399
Orientation	-7400
StringArray	-7401
ThreadLocal	-7402
▁AuditEvent	-7403
▁getCommand	-7404
▁getServlet	-7405
▁getSubject	-7406
Availability	-7407
UiVisibility	-7408
onedDateTime	-7409
▁Association	-7410
▁beanFactory	-7411
▁preferences	-7412
▁showMessage	-7413
▁userService	-7414
DLFileVersion	-7415
keHoachVeSinh	-7416
▁XYCoordinate	-7417
▁availability	-7418
▁isProcessing	-7419
ServiceFactory	-7420
▁ListDataEvent	-7421
▁ProxySelector	-7422
▁BlockContainer	-7423
▁ResourceLoader	-7424
▁removeProperty	-7425
SeriesCollection	-7426
▁GeographicPoint	-7427
45	-7428
_3	-7429
gb	-7430
gl	-7431
lv	-7432
md	-7433
wd	-7434
Car	-7435
DFS	-7436
ELD	-7437
GHT	-7438
GTH	-7439
IFI	-7440
Kit	-7441
STY	-7442
Sig	-7443
Sql	-7444
VED	-7445
WRI	-7446
bus	-7447
ike	-7448
mpp	-7449
svn	-7450
▁Bo	-7451
▁FE	-7452
▁FQ	-7453
▁PG	-7454
▁Rq	-7455
▁ow	-7456
▁uh	-7457
▁vm	-7458
CONT	-7459
Lang	-7460
Shot	-7461
anel	-7462
dget	-7463
edis	-7464
ente	-7465
lack	-7466
opes	-7467
rome	-7468
ynth	-7469
▁LOW	-7470
▁adv	-7471
▁cal	-7472
▁eai	-7473
▁idx	-7474
▁reg	-7475
▁var	-7476
ENTER	-7477
Estim	-7478
IVITY	-7479
Quiet	-7480
ToHex	-7481
Trash	-7482
Watch	-7483
apler	-7484
avers	-7485
enger	-7486
izing	-7487
oring	-7488
rypto	-7489
stone	-7490
▁Gson	-7491
▁Html	-7492
▁best	-7493
▁canG	-7494
▁fram	-7495
▁mMin	-7496
▁slot	-7497
OFFSET	-7498
TimeTo	-7499
UCCESS	-7500
arizer	-7501
arkers	-7502
cepted	-7503
ensity	-7504
ention	-7505
length	-7506
pooled	-7507
▁Atmos	-7508
▁JText	-7509
▁Keyed	-7510
▁Stock	-7511
▁TBase	-7512
▁cause	-7513
▁enter	-7514
▁estim	-7515
▁extra	-7516
▁price	-7517
▁recon	-7518
▁rowTo	-7519
▁score	-7520
▁toURI	-7521
▁today	-7522
Advisor	-7523
Devices	-7524
Elapsed	-7525
FieldId	-7526
OneShot	-7527
Ordered	-7528
ational	-7529
ildcard	-7530
initial	-7531
▁Author	-7532
▁LENGTH	-7533
▁Legend	-7534
▁Review	-7535
▁STRING	-7536
▁Tagged	-7537
▁blocks	-7538
▁getRaw	-7539
▁obtain	-7540
▁setKey	-7541
Analyzer	-7542
Envelope	-7543
Geometry	-7544
Optional	-7545
Specific	-7546
rollment	-7547
▁CONTENT	-7548
▁Console	-7549
▁Coordin	-7550
▁Headers	-7551
▁Ordered	-7552
▁Quarter	-7553
▁Stapler	-7554
▁isBlank	-7555
▁pointer	-7556
▁setView	-7557
▁warning	-7558
Broadcast	-7559
Injection	-7560
Inventory	-7561
Requested	-7562
▁Datagram	-7563
▁counters	-7564
▁getGroup	-7565
▁getSuper	-7566
▁mimeType	-7567
▁readFrom	-7568
▁relation	-7569
FromString	-7570
TimePeriod	-7571
attachment	-7572
oAuthToken	-7573
▁ArrayType	-7574
▁Injection	-7575
▁SEPARATOR	-7576
▁Scheduled	-7577
▁execution	-7578
▁getFormat	-7579
▁getSchema	-7580
▁presenter	-7581
NodePointer	-7582
RequestCode	-7583
▁Attachment	-7584
▁Evaluation	-7585
▁ISelection	-7586
▁Resolvable	-7587
▁StackTrace	-7588
▁getDetails	-7589
▁getFactory	-7590
▁BasicStroke	-7591
▁destination	-7592
▁getInternal	-7593
▁getPosition	-7594
▁isConnected	-7595
▁isTruncated	-7596
▁templateRef	-7597
SocketChannel	-7598
▁Registration	-7599
▁hasNextProxy	-7600
▁showFeedback	-7601
▁LinkedHashSet	-7602
▁RenderManager	-7603
▁getCoordinate	-7604
▁isNullOrEmpty	-7605
AccessException	-7606
▁AttributeField	-7607
▁authentication	-7608
▁writeNamespace	-7609
▁NamingException	-7610
▁TransportClient	-7611
▁getAndIncrement	-7612
PR	-7613
XA	-7614
]'	-7615
bl	-7616
256	-7617
Cor	-7618
Mul	-7619
PAN	-7620
POS	-7621
Rpc	-7622
ToM	-7623
Unm	-7624
Zip	-7625
ane	-7626
cms	-7627
ead	-7628
inh	-7629
ium	-7630
loc	-7631
ogn	-7632
oss	-7633
▁Fi	-7634
▁cr	-7635
▁ui	-7636
Done	-7637
Html	-7638
Leaf	-7639
Prim	-7640
SIST	-7641
URLs	-7642
aver	-7643
greg	-7644
kins	-7645
oker	-7646
▁']'	-7647
▁1.1	-7648
▁CTO	-7649
▁Iss	-7650
▁Raw	-7651
▁Rep	-7652
▁Ssa	-7653
▁dot	-7654
▁fld	-7655
▁ids	-7656
▁mul	-7657
▁nio	-7658
▁tcp	-7659
▁uhh	-7660
▁unp	-7661
ATYPE	-7662
Angle	-7663
COLUM	-7664
Calls	-7665
Faces	-7666
ILURE	-7667
RANGE	-7668
STYLE	-7669
Saved	-7670
Until	-7671
Wheel	-7672
anced	-7673
blems	-7674
going	-7675
idden	-7676
ivale	-7677
stack	-7678
▁Area	-7679
▁COMP	-7680
▁Edit	-7681
▁HOUR	-7682
▁Meta	-7683
▁Play	-7684
▁Qual	-7685
▁Save	-7686
▁Solr	-7687
▁blue	-7688
▁clip	-7689
▁genf	-7690
▁mLog	-7691
▁seek	-7692
201502	-7693
Answer	-7694
Bottom	-7695
COMPAR	-7696
CONFIG	-7697
Clause	-7698
Family	-7699
Flavor	-7700
Health	-7701
Insert	-7702
Repeat	-7703
buffer	-7704
dering	-7705
ehicle	-7706
folder	-7707
laimed	-7708
preter	-7709
witter	-7710
▁Alias	-7711
▁Flush	-7712
▁START	-7713
▁Video	-7714
▁addTo	-7715
▁chars	-7716
▁comma	-7717
▁cross	-7718
▁realm	-7719
▁retry	-7720
▁uUser	-7721
Between	-7722
Cleanup	-7723
DataMap	-7724
Disable	-7725
Example	-7726
INITIAL	-7727
MISSION	-7728
Numeric	-7729
Samples	-7730
anitize	-7731
▁CENTER	-7732
▁Carbon	-7733
▁Direct	-7734
▁Minute	-7735
▁always	-7736
▁getAtt	-7737
▁images	-7738
▁isInfo	-7739
▁jniGet	-7740
▁modify	-7741
▁retain	-7742
▁tables	-7743
Disabled	-7744
IdMapper	-7745
Injector	-7746
KeyValue	-7747
Profiles	-7748
XContent	-7749
location	-7750
orgLabor	-7751
▁Alluxio	-7752
▁Elastic	-7753
▁Measure	-7754
▁Section	-7755
▁encoder	-7756
▁equalTo	-7757
▁fSource	-7758
▁findOne	-7759
▁getMain	-7760
Datapoint	-7761
Frequency	-7762
SeqHolder	-7763
Workbench	-7764
ompressor	-7765
▁Charsets	-7766
▁DATATYPE	-7767
▁PDAction	-7768
▁defaults	-7769
▁getRight	-7770
▁mMarkers	-7771
▁metaData	-7772
▁nextLong	-7773
▁popState	-7774
▁rotation	-7775
▁services	-7776
▁setImage	-7777
▁supports	-7778
▁tabIndex	-7779
▁userList	-7780
CONNECTION	-7781
Converters	-7782
PluginHost	-7783
bstraction	-7784
▁eINSTANCE	-7785
▁getAccess	-7786
▁getOffset	-7787
▁getWindow	-7788
▁instances	-7789
▁migration	-7790
▁protected	-7791
▁pushState	-7792
▁reclaimed	-7793
Arrangement	-7794
Directories	-7795
MessageLite	-7796
RequestInfo	-7797
atingsStats	-7798
▁Allocation	-7799
▁Constraint	-7800
▁Definition	-7801
▁Descriptor	-7802
▁FileStatus	-7803
▁Management	-7804
▁PrivateKey	-7805
▁Privileged	-7806
▁StatusEnum	-7807
▁controller	-7808
▁dimensions	-7809
▁getDisplay	-7810
▁quoteStart	-7811
▁setContent	-7812
▁styledText	-7813
Serializable	-7814
StateManager	-7815
URLException	-7816
▁FileChannel	-7817
▁PasteAction	-7818
▁ResourceSet	-7819
ContextHolder	-7820
▁elementCount	-7821
▁fillGradient	-7822
▁mCurrentSize	-7823
▁DecimalFormat	-7824
▁SimpleFeature	-7825
▁ThreadContext	-7826
▁ValueEnforcer	-7827
▁fSourceViewer	-7828
▁isInfoEnabled	-7829
SubUiVisibility	-7830
▁ActivationSpec	-7831
▁GeneratorUtils	-7832
▁ServiceContext	-7833
RegistersRequest	-7834
14	-7835
DR	-7836
Io	-7837
Xa	-7838
rm	-7839
}'	-7840
CDD	-7841
CLU	-7842
Dot	-7843
ISO	-7844
IfN	-7845
LIT	-7846
MSG	-7847
OLD	-7848
RAM	-7849
ROW	-7850
SUB	-7851
Win	-7852
eil	-7853
isk	-7854
ois	-7855
sIn	-7856
▁PK	-7857
▁pr	-7858
▁ts	-7859
▁zk	-7860
Chat	-7861
Dist	-7862
ENER	-7863
Intf	-7864
LISH	-7865
Peer	-7866
Room	-7867
apon	-7868
edOn	-7869
ertx	-7870
fact	-7871
ives	-7872
ktop	-7873
oded	-7874
tice	-7875
▁'}'	-7876
▁DIS	-7877
▁Dyn	-7878
▁HSS	-7879
▁MET	-7880
▁Net	-7881
▁Nio	-7882
▁Var	-7883
▁amI	-7884
▁ins	-7885
▁isF	-7886
▁mSp	-7887
▁mis	-7888
▁sim	-7889
CODES	-7890
DEFIN	-7891
INDOW	-7892
Later	-7893
MILLI	-7894
MLCDD	-7895
MODER	-7896
ORDER	-7897
Paths	-7898
Reply	-7899
SPLAY	-7900
Stock	-7901
Xtext	-7902
Zones	-7903
allel	-7904
alloc	-7905
atest	-7906
eList	-7907
etter	-7908
etype	-7909
itted	-7910
sisdn	-7911
▁	-7912
r	-7913
n	-7914
t	-7915
e	-7916
i	-7917
o	-7918
a	-7919
g	-7920
l	-7921
c	-7922
u	-7923
)	-7924
(	-7925
s	-7926
0	-7927
f	-7928
;	-7929
.	-7930
d	-7931
}	-7932
{	-7933
S	-7934
p	-7935
m	-7936
=	-7937
h	-7938
,	-7939
v	-7940
1	-7941
y	-7942
b	-7943
C	-7944
T	-7945
E	-7946
I	-7947
_	-7948
w	-7949
"	-7950
A	-7951
L	-7952
R	-7953
P	-7954
x	-7955
O	-7956
D	-7957
N	-7958
M	-7959
2	-7960
B	-7961
F	-7962
<	-7963
>	-7964
k	-7965
+	-7966
j	-7967
U	-7968
]	-7969
[	-7970
V	-7971
H	-7972
G	-7973
!	-7974
q	-7975
z	-7976
3	-7977
W	-7978
&	-7979
K	-7980
:	-7981
-	-7982
J	-7983
X	-7984
|	-7985
?	-7986
Q	-7987
Y	-7988
4	-7989
*	-7990
5	-7991
'	-7992
@	-7993
6	-7994
Z	-7995
