<pad>	0
<unk>	0
<sos>	0
<eos>	0
co	-0
se	-1
de	-2
le	-3
con	-4
▁con	-5
code	-6
sep	-7
▁concode	-8
lem	-9
elem	-10
in	-11
st	-12
ge	-13
id	-14
te	-15
re	-16
▁v	-17
ing	-18
oid	-19
▁void	-20
on	-21
▁ge	-22
an	-23
str	-24
▁get	-25
ti	-26
string	-27
er	-28
fi	-29
▁t	-30
or	-31
▁se	-32
▁string	-33
al	-34
me	-35
▁b	-36
▁in	-37
el	-38
▁set	-39
he	-40
at	-41
tion	-42
eld	-43
field	-44
ar	-45
ce	-46
oo	-47
nt	-48
li	-49
▁int	-50
ate	-51
▁c	-52
lean	-53
oolean	-54
▁p	-55
▁boolean	-56
ro	-57
is	-58
ri	-59
ac	-60
lo	-61
pe	-62
▁re	-63
▁the	-64
as	-65
na	-66
ty	-67
si	-68
ad	-69
ou	-70
▁m	-71
ue	-72
ec	-73
▁d	-74
▁.	-75
ap	-76
▁e	-77
th	-78
▁s	-79
▁f	-80
ter	-81
▁o	-82
name	-83
list	-84
der	-85
ble	-86
mo	-87
ation	-88
▁l	-89
mp	-90
ve	-91
ur	-92
▁w	-93
▁is	-94
▁co	-95
ser	-96
ay	-97
ke	-98
▁to	-99
ect	-100
il	-101
res	-102
age	-103
ul	-104
▁i	-105
ong	-106
type	-107
▁n	-108
vi	-109
▁a	-110
per	-111
bu	-112
ch	-113
▁j	-114
ject	-115
▁long	-116
▁h	-117
ver	-118
alue	-119
and	-120
del	-121
sc	-122
▁u	-123
bject	-124
qu	-125
it	-126
nd	-127
▁de	-128
add	-129
la	-130
to	-131
▁list	-132
▁th	-133
ss	-134
model	-135
ent	-136
ort	-137
pro	-138
ed	-139
[]	-140
sion	-141
reate	-142
xt	-143
va	-144
um	-145
ol	-146
di	-147
ta	-148
▁ja	-149
▁of	-150
▁lo	-151
▁st	-152
ult	-153
time	-154
ass	-155
up	-156
set	-157
▁create	-158
ger	-159
que	-160
date	-161
▁java	-162
ut	-163
un	-164
ption	-165
no	-166
fer	-167
file	-168
ment	-169
key	-170
ata	-171
▁add	-172
ic	-173
fa	-174
tor	-175
▁pro	-176
▁me	-177
en	-178
orm	-179
port	-180
po	-181
yte	-182
value	-183
od	-184
our	-185
ith	-186
ck	-187
ang	-188
tri	-189
int	-190
am	-191
ze	-192
vice	-193
all	-194
tur	-195
able	-196
ew	-197
▁has	-198
ouble	-199
▁com	-200
lass	-201
ali	-202
text	-203
es	-204
turn	-205
▁object	-206
out	-207
▁ex	-208
ma	-209
ache	-210
▁this	-211
ci	-212
▁return	-213
▁log	-214
ource	-215
▁,	-216
ted	-217
test	-218
ran	-219
▁double	-220
gi	-221
unt	-222
us	-223
scri	-224
art	-225
lang	-226
map	-227
ilder	-228
▁value	-229
ator	-230
older	-231
lace	-232
ra	-233
ig	-234
▁no	-235
ction	-236
▁gets	-237
fe	-238
▁map	-239
ack	-240
thod	-241
ssage	-242
size	-243
▁tostring	-244
ase	-245
count	-246
tribu	-247
lifer	-248
liferay	-249
cation	-250
ray	-251
object	-252
teger	-253
attribu	-254
service	-255
als	-256
fo	-257
attribute	-258
array	-259
quest	-260
▁byte	-261
ance	-262
▁on	-263
ure	-264
ype	-265
nce	-266
nti	-267
▁or	-268
holder	-269
▁with	-270
▁be	-271
action	-272
user	-273
par	-274
fault	-275
ub	-276
▁test	-277
are	-278
do	-279
quer	-280
ct	-281
form	-282
▁place	-283
ho	-284
▁for	-285
ry	-286
query	-287
▁bu	-288
ine	-289
▁hash	-290
▁placeholder	-291
col	-292
perty	-293
fig	-294
ber	-295
dex	-296
loat	-297
ath	-298
ob	-299
▁res	-300
ale	-301
rom	-302
▁returns	-303
comp	-304
tory	-305
wor	-306
▁sets	-307
▁an	-308
▁_	-309
ame	-310
ne	-311
tem	-312
data	-313
ary	-314
one	-315
ader	-316
version	-317
tent	-318
pre	-319
▁r	-320
pl	-321
▁getc	-322
▁ch	-323
ress	-324
builder	-325
▁float	-326
ax	-327
put	-328
sto	-329
quals	-330
scription	-331
ht	-332
tex	-333
stance	-334
vent	-335
atus	-336
mic	-337
▁name	-338
get	-339
▁comp	-340
ler	-341
element	-342
▁as	-343
gro	-344
pon	-345
umber	-346
class	-347
rite	-348
cess	-349
read	-350
▁method	-351
move	-352
▁equals	-353
▁sh	-354
of	-355
▁getp	-356
red	-357
▁if	-358
com	-359
aliz	-360
cache	-361
▁type	-362
nec	-363
cal	-364
portal	-365
state	-366
urre	-367
▁hashcode	-368
fac	-369
▁and	-370
tive	-371
node	-372
yna	-373
sed	-374
log	-375
message	-376
ner	-377
▁par	-378
info	-379
ker	-380
ind	-381
ynamic	-382
ror	-383
val	-384
fere	-385
uid	-386
ream	-387
be	-388
til	-389
result	-390
low	-391
rans	-392
▁date	-393
inter	-394
nection	-395
group	-396
ponse	-397
ex	-398
url	-399
man	-400
sh	-401
request	-402
ly	-403
fil	-404
nable	-405
cate	-406
▁en	-407
▁integer	-408
heck	-409
au	-410
oc	-411
ener	-412
config	-413
util	-414
nel	-415
▁remove	-416
im	-417
ameter	-418
▁read	-419
▁g	-420
▁col	-421
▁x	-422
▁file	-423
ild	-424
urrent	-425
▁default	-426
status	-427
rap	-428
description	-429
lete	-430
ml	-431
context	-432
ange	-433
ference	-434
ynamicquery	-435
index	-436
ste	-437
▁ac	-438
▁po	-439
▁up	-440
▁class	-441
row	-442
ses	-443
du	-444
▁ap	-445
attributes	-446
lock	-447
pa	-448
ts	-449
ten	-450
stream	-451
amp	-452
▁un	-453
table	-454
ped	-455
atch	-456
tain	-457
ip	-458
▁ne	-459
ory	-460
lient	-461
path	-462
uration	-463
▁property	-464
▁write	-465
son	-466
by	-467
▁pre	-468
byte	-469
cl	-470
rim	-471
▁logger	-472
rid	-473
ull	-474
▁that	-475
ties	-476
rializ	-477
gn	-478
▁id	-479
tp	-480
▁mo	-481
content	-482
lection	-483
header	-484
ster	-485
fied	-486
denti	-487
factory	-488
vel	-489
nc	-490
▁array	-491
fin	-492
ask	-493
led	-494
manage	-495
pli	-496
▁from	-497
ab	-498
ket	-499
▁data	-500
address	-501
<?	-502
for	-503
response	-504
cor	-505
resource	-506
tern	-507
ori	-508
ded	-509
listener	-510
min	-511
ffer	-512
▁cl	-513
sition	-514
▁setp	-515
ard	-516
ag	-517
view	-518
▁new	-519
sist	-520
tr	-521
nabled	-522
pen	-523
ven	-524
ill	-525
len	-526
▁time	-527
▁start	-528
ute	-529
integer	-530
ken	-531
filter	-532
max	-533
▁key	-534
▁update	-535
▁getre	-536
▁'	-537
temp	-538
error	-539
pand	-540
ast	-541
▁setc	-542
line	-543
▁user	-544
▁check	-545
act	-546
kernel	-547
▁char	-548
parameter	-549
word	-550
▁getde	-551
▁di	-552
rimary	-553
base	-554
▁org	-555
▁not	-556
ument	-557
format	-558
item	-559
andler	-560
▁do	-561
wn	-562
connection	-563
iti	-564
perties	-565
serializ	-566
gin	-567
▁gi	-568
▁message	-569
lec	-570
from	-571
ridge	-572
number	-573
ding	-574
▁per	-575
▁ser	-576
back	-577
manager	-578
▁by	-579
ist	-580
property	-581
we	-582
let	-583
peci	-584
ref	-585
work	-586
arch	-587
regi	-588
▁delete	-589
>>	-590
▁seri	-591
▁given	-592
fir	-593
mit	-594
start	-595
fier	-596
ception	-597
gth	-598
sign	-599
ld	-600
ash	-601
▁getname	-602
ector	-603
▁can	-604
level	-605
ree	-606
▁sc	-607
length	-608
umn	-609
point	-610
uri	-611
ool	-612
isi	-613
change	-614
axis	-615
▁builder	-616
ces	-617
▁ise	-618
method	-619
ir	-620
▁whe	-621
▁al	-622
output	-623
with	-624
fix	-625
trans	-626
obridge	-627
pandobridge	-628
ping	-629
sy	-630
valid	-631
bo	-632
rol	-633
buffer	-634
lic	-635
instance	-636
dis	-637
lear	-638
▁will	-639
ntry	-640
rint	-641
qname	-642
▁ma	-643
▁max	-644
▁dis	-645
ound	-646
▁instance	-647
tifi	-648
load	-649
et	-650
ated	-651
cre	-652
local	-653
tal	-654
ink	-655
vider	-656
new	-657
ach	-658
ps	-659
arget	-660
queue	-661
first	-662
desc	-663
ther	-664
▁getb	-665
not	-666
▁state	-667
▁clone	-668
ff	-669
▁end	-670
▁serial	-671
rimarykey	-672
lay	-673
ave	-674
apache	-675
terator	-676
▁result	-677
da	-678
arent	-679
ms	-680
cel	-681
▁dynamicquery	-682
play	-683
▁request	-684
tag	-685
serializer	-686
▁are	-687
onent	-688
▁at	-689
coding	-690
handler	-691
▁ver	-692
mpty	-693
stru	-694
versionuid	-695
assword	-696
cale	-697
▁config	-698
dire	-699
▁setex	-700
ting	-701
cord	-702
▁contain	-703
▁clear	-704
▁getuser	-705
hi	-706
long	-707
▁clo	-708
late	-709
▁speci	-710
mode	-711
last	-712
▁getw	-713
▁find	-714
xy	-715
▁it	-716
▁sto	-717
▁current	-718
▁run	-719
peration	-720
usto	-721
pt	-722
unction	-723
lab	-724
▁big	-725
main	-726
▁next	-727
▁reset	-728
su	-729
▁gete	-730
pedmodel	-731
char	-732
▁gettype	-733
▁regi	-734
alize	-735
▁number	-736
ked	-737
ight	-738
server	-739
▁json	-740
tit	-741
mar	-742
persist	-743
quence	-744
▁arraylist	-745
▁node	-746
ature	-747
mi	-748
▁form	-749
▁exec	-750
clu	-751
▁ro	-752
▁getid	-753
▁print	-754
▁sub	-755
client	-756
riter	-757
session	-758
▁size	-759
py	-760
▁error	-761
ari	-762
ule	-763
default	-764
sca	-765
tic	-766
ocket	-767
arg	-768
bytes	-769
option	-770
face	-771
▁resource	-772
mand	-773
host	-774
sche	-775
token	-776
mage	-777
<?>	-778
▁trans	-779
▁index	-780
▁tr	-781
oci	-782
raw	-783
update	-784
auth	-785
pace	-786
▁y	-787
sent	-788
modi	-789
idth	-790
ght	-791
▁gener	-792
▁all	-793
sing	-794
qui	-795
sert	-796
cont	-797
dynamicquery	-798
visi	-799
properties	-800
▁we	-801
next	-802
bean	-803
sub	-804
hash	-805
label	-806
pend	-807
values	-808
▁collection	-809
column	-810
color	-811
attern	-812
plication	-813
met	-814
▁call	-815
location	-816
task	-817
ph	-818
▁ad	-819
▁cal	-820
tail	-821
ust	-822
ntity	-823
▁ht	-824
ition	-825
▁sy	-826
store	-827
timeout	-828
▁getex	-829
om	-830
dao	-831
lement	-832
xml	-833
▁setre	-834
alid	-835
▁compare	-836
▁path	-837
▁put	-838
▁parse	-839
how	-840
configuration	-841
ptor	-842
gre	-843
tivi	-844
dentifier	-845
▁getf	-846
ution	-847
ustom	-848
ant	-849
▁getmodel	-850
pi	-851
title	-852
provider	-853
ression	-854
ugin	-855
▁item	-856
ndar	-857
mis	-858
mal	-859
vo	-860
mail	-861
tivity	-862
doc	-863
▁au	-864
ample	-865
▁build	-866
ulti	-867
▁si	-868
kale	-869
▁initi	-870
position	-871
selec	-872
▁event	-873
mem	-874
gory	-875
▁setuser	-876
names	-877
▁use	-878
if	-879
▁init	-880
lag	-881
input	-882
arn	-883
▁connection	-884
dat	-885
block	-886
▁format	-887
▁cache	-888
▁last	-889
▁short	-890
writer	-891
any	-892
stamp	-893
uuid	-894
ould	-895
arator	-896
▁field	-897
reference	-898
ds	-899
thread	-900
▁valid	-901
mon	-902
adata	-903
range	-904
ren	-905
xb	-906
tt	-907
▁used	-908
tension	-909
stem	-910
▁su	-911
licy	-912
▁xml	-913
scapedmodel	-914
persisted	-915
▁content	-916
men	-917
▁load	-918
tend	-919
igin	-920
ili	-921
component	-922
yle	-923
▁specified	-924
▁thread	-925
down	-926
▁iterator	-927
▁jaxb	-928
▁close	-929
cimal	-930
▁vector	-931
role	-932
ook	-933
detail	-934
▁input	-935
▁context	-936
che	-937
sum	-938
image	-939
persistedmodel	-940
rame	-941
greg	-942
ndle	-943
order	-944
▁''	-945
fore	-946
▁`	-947
▁li	-948
defin	-949
▁http	-950
▁element	-951
ql	-952
enabled	-953
▁status	-954
ments	-955
orted	-956
target	-957
andle	-958
ron	-959
fter	-960
unit	-961
template	-962
layout	-963
ssion	-964
page	-965
▁conver	-966
cent	-967
▁setname	-968
▁query	-969
▁uri	-970
height	-971
▁session	-972
obj	-973
bit	-974
sequence	-975
dule	-976
posi	-977
io	-978
▁should	-979
▁z	-980
null	-981
dition	-982
flow	-983
bug	-984
ive	-985
fset	-986
▁cor	-987
source	-988
▁vi	-989
▁inter	-990
▁imp	-991
ody	-992
▁setid	-993
web	-994
▁geto	-995
pression	-996
▁text	-997
oot	-998
http	-999
decimal	-1000
▁wor	-1001
▁min	-1002
▁url	-1003
modified	-1004
ity	-1005
▁service	-1006
pan	-1007
▁ab	-1008
▁jaxbelement	-1009
num	-1010
child	-1011
call	-1012
▁getpro	-1013
db	-1014
raph	-1015
▁contains	-1016
ply	-1017
▁tag	-1018
▁when	-1019
dmodel	-1020
▁seti	-1021
ava	-1022
net	-1023
scriptor	-1024
qual	-1025
actionable	-1026
▁whi	-1027
interface	-1028
tification	-1029
▁order	-1030
mission	-1031
ility	-1032
match	-1033
pri	-1034
end	-1035
imp	-1036
stro	-1037
gr	-1038
entry	-1039
▁null	-1040
▁ho	-1041
localservice	-1042
param	-1043
▁option	-1044
link	-1045
kaleo	-1046
▁k	-1047
▁le	-1048
policy	-1049
event	-1050
ous	-1051
▁na	-1052
▁color	-1053
pec	-1054
▁getvalue	-1055
options	-1056
contain	-1057
▁description	-1058
cer	-1059
▁fa	-1060
record	-1061
▁image	-1062
clo	-1063
classname	-1064
space	-1065
tocol	-1066
▁__	-1067
▁my	-1068
▁any	-1069
upport	-1070
ternal	-1071
zon	-1072
▁copy	-1073
▁doc	-1074
sec	-1075
notation	-1076
▁process	-1077
▁count	-1078
annel	-1079
ft	-1080
headers	-1081
aint	-1082
▁client	-1083
ls	-1084
stat	-1085
ctory	-1086
search	-1087
calendar	-1088
▁source	-1089
resol	-1090
definition	-1091
▁register	-1092
mil	-1093
ume	-1094
▁first	-1095
▁action	-1096
ont	-1097
ws	-1098
▁output	-1099
encoding	-1100
▁response	-1101
track	-1102
secon	-1103
ncy	-1104
nder	-1105
double	-1106
andom	-1107
registr	-1108
ki	-1109
style	-1110
▁pl	-1111
struct	-1112
▁getwrap	-1113
descriptor	-1114
▁entry	-1115
▁getmax	-1116
itor	-1117
▁setb	-1118
account	-1119
▁send	-1120
pr	-1121
width	-1122
gress	-1123
command	-1124
▁compareto	-1125
access	-1126
uthe	-1127
ual	-1128
cle	-1129
▁parameter	-1130
prefix	-1131
use	-1132
dir	-1133
identifier	-1134
total	-1135
nect	-1136
unter	-1137
▁bigdecimal	-1138
resh	-1139
▁stop	-1140
nal	-1141
initi	-1142
setting	-1143
fy	-1144
inding	-1145
box	-1146
very	-1147
▁fin	-1148
ating	-1149
atri	-1150
uthenti	-1151
▁server	-1152
ackage	-1153
parameters	-1154
activity	-1155
create	-1156
ait	-1157
angle	-1158
control	-1159
api	-1160
cachedmodel	-1161
rimarykeyobj	-1162
lin	-1163
den	-1164
active	-1165
gener	-1166
company	-1167
und	-1168
present	-1169
allow	-1170
▁sche	-1171
tric	-1172
▁sete	-1173
▁qname	-1174
pool	-1175
▁true	-1176
document	-1177
▁line	-1178
utable	-1179
origin	-1180
▁version	-1181
gment	-1182
▁filter	-1183
typedesc	-1184
ority	-1185
function	-1186
pository	-1187
▁append	-1188
place	-1189
lob	-1190
flag	-1191
metadata	-1192
▁code	-1193
▁persist	-1194
process	-1195
open	-1196
atrix	-1197
▁``	-1198
▁reference	-1199
▁assert	-1200
ries	-1201
▁attribute	-1202
ati	-1203
▁empty	-1204
details	-1205
▁configuration	-1206
mple	-1207
ination	-1208
▁properties	-1209
boolean	-1210
imum	-1211
▁getj	-1212
utor	-1213
device	-1214
▁bit	-1215
current	-1216
collection	-1217
mapping	-1218
leg	-1219
▁point	-1220
▁base	-1221
check	-1222
pos	-1223
orage	-1224
display	-1225
ariable	-1226
dent	-1227
category	-1228
fication	-1229
run	-1230
formation	-1231
vector	-1232
og	-1233
▁man	-1234
vision	-1235
▁values	-1236
▁view	-1237
mer	-1238
cap	-1239
lect	-1240
changed	-1241
▁task	-1242
rule	-1243
dicate	-1244
cope	-1245
clude	-1246
lex	-1247
ilable	-1248
operation	-1249
ccess	-1250
▁extend	-1251
ns	-1252
▁hashmap	-1253
▁creates	-1254
cachemodel	-1255
indo	-1256
igh	-1257
wrap	-1258
zone	-1259
mote	-1260
acter	-1261
elper	-1262
ceive	-1263
plugin	-1264
duct	-1265
region	-1266
▁model	-1267
tificate	-1268
abel	-1269
loy	-1270
stic	-1271
▁so	-1272
▁over	-1273
▁show	-1274
loader	-1275
part	-1276
ord	-1277
site	-1278
▁out	-1279
lease	-1280
▁database	-1281
▁debug	-1282
internal	-1283
▁after	-1284
only	-1285
tity	-1286
▁proxy	-1287
ep	-1288
▁throw	-1289
▁token	-1290
offset	-1291
ride	-1292
timestamp	-1293
ise	-1294
▁gett	-1295
atype	-1296
▁total	-1297
gest	-1298
ount	-1299
core	-1300
delay	-1301
▁change	-1302
bound	-1303
▁execute	-1304
▁exit	-1305
▁one	-1306
▁pri	-1307
right	-1308
leted	-1309
stype	-1310
▁generate	-1311
br	-1312
▁open	-1313
▁called	-1314
portlet	-1315
transaction	-1316
▁which	-1317
condition	-1318
▁getin	-1319
▁encode	-1320
▁address	-1321
▁biginteger	-1322
▁web	-1323
tab	-1324
▁fet	-1325
▁main	-1326
pattern	-1327
ocial	-1328
argument	-1329
files	-1330
▁getm	-1331
vlet	-1332
sync	-1333
▁allow	-1334
▁setf	-1335
old	-1336
hot	-1337
▁he	-1338
ason	-1339
▁getdescription	-1340
cen	-1341
▁getd	-1342
▁ext	-1343
password	-1344
▁search	-1345
race	-1346
▁convert	-1347
▁make	-1348
proxy	-1349
types	-1350
▁dat	-1351
lation	-1352
upp	-1353
ush	-1354
▁mar	-1355
▁extends	-1356
▁label	-1357
quired	-1358
so	-1359
tracker	-1360
▁application	-1361
hop	-1362
reader	-1363
df	-1364
mb	-1365
▁handle	-1366
companyid	-1367
▁setde	-1368
network	-1369
▁ct	-1370
▁whether	-1371
▁function	-1372
medi	-1373
▁implement	-1374
▁row	-1375
20	-1376
cry	-1377
json	-1378
▁getlast	-1379
▁host	-1380
▁port	-1381
ctor	-1382
exception	-1383
fill	-1384
▁fetch	-1385
fail	-1386
write	-1387
lis	-1388
▁match	-1389
ning	-1390
cacheenabled	-1391
associ	-1392
fields	-1393
oki	-1394
▁document	-1395
roll	-1396
auto	-1397
▁save	-1398
▁setup	-1399
ared	-1400
scal	-1401
memory	-1402
termin	-1403
cur	-1404
orian	-1405
▁-	-1406
way	-1407
▁block	-1408
▁settype	-1409
limit	-1410
ain	-1411
▁jsonbuilder	-1412
▁listener	-1413
top	-1414
ion	-1415
▁job	-1416
▁header	-1417
▁buffer	-1418
oriancalendar	-1419
▁ti	-1420
ite	-1421
uage	-1422
▁position	-1423
cul	-1424
▁cont	-1425
frame	-1426
permission	-1427
▁qu	-1428
▁fi	-1429
module	-1430
▁table	-1431
▁selec	-1432
urity	-1433
▁pattern	-1434
indow	-1435
▁other	-1436
trie	-1437
naps	-1438
project	-1439
cator	-1440
▁length	-1441
vide	-1442
dentity	-1443
ranch	-1444
counter	-1445
vate	-1446
iled	-1447
▁getcurrent	-1448
rect	-1449
light	-1450
feature	-1451
▁parent	-1452
stats	-1453
ferences	-1454
bundle	-1455
ful	-1456
▁native	-1457
▁cordo	-1458
▁custom	-1459
container	-1460
ow	-1461
▁invo	-1462
groupid	-1463
▁random	-1464
zation	-1465
▁mem	-1466
arti	-1467
workflow	-1468
rate	-1469
hopping	-1470
▁xmlgreg	-1471
directory	-1472
▁returned	-1473
▁getfile	-1474
sin	-1475
selected	-1476
ak	-1477
sql	-1478
ence	-1479
channel	-1480
▁xcontent	-1481
▁there	-1482
ape	-1483
▁column	-1484
▁getdefault	-1485
▁bean	-1486
job	-1487
▁record	-1488
▁fe	-1489
social	-1490
selector	-1491
▁multi	-1492
over	-1493
▁info	-1494
op	-1495
▁local	-1496
▁geth	-1497
▁setvalue	-1498
application	-1499
ransition	-1500
oin	-1501
▁ob	-1502
▁lin	-1503
▁num	-1504
ally	-1505
terror	-1506
adap	-1507
▁case	-1508
▁work	-1509
▁stream	-1510
▁testget	-1511
modifieddate	-1512
dm	-1513
straint	-1514
resolver	-1515
▁does	-1516
signature	-1517
▁setlog	-1518
▁only	-1519
▁getdata	-1520
▁warn	-1521
▁validate	-1522
impl	-1523
▁rect	-1524
statement	-1525
▁getst	-1526
▁manage	-1527
▁serializ	-1528
cept	-1529
fact	-1530
interval	-1531
▁exist	-1532
▁page	-1533
napshot	-1534
clas	-1535
▁using	-1536
▁adds	-1537
atche	-1538
ved	-1539
jec	-1540
▁iss	-1541
ids	-1542
▁asser	-1543
▁enter	-1544
▁entity	-1545
▁target	-1546
mm	-1547
os	-1548
rt	-1549
▁initialize	-1550
▁getstatus	-1551
direct	-1552
▁component	-1553
rc	-1554
ordin	-1555
▁represent	-1556
ffect	-1557
hashcode	-1558
case	-1559
acity	-1560
▁group	-1561
settings	-1562
▁getcon	-1563
▁queue	-1564
ause	-1565
original	-1566
tree	-1567
progress	-1568
metric	-1569
▁1	-1570
▁bytes	-1571
protocol	-1572
▁location	-1573
▁getkey	-1574
▁display	-1575
stination	-1576
▁getn	-1577
sumer	-1578
▁level	-1579
▁bundle	-1580
▁you	-1581
alse	-1582
comment	-1583
hed	-1584
annotation	-1585
day	-1586
▁getinstance	-1587
▁exception	-1588
alog	-1589
reatedate	-1590
wit	-1591
stroy	-1592
cip	-1593
multi	-1594
▁cre	-1595
zer	-1596
reen	-1597
ycle	-1598
term	-1599
vious	-1600
variable	-1601
▁operation	-1602
av	-1603
▁tree	-1604
post	-1605
tach	-1606
ations	-1607
agent	-1608
▁setdescription	-1609
▁setmax	-1610
isit	-1611
upported	-1612
▁getr	-1613
ublic	-1614
ode	-1615
▁ref	-1616
ollow	-1617
▁inputstream	-1618
▁have	-1619
▁isempty	-1620
▁simple	-1621
▁bo	-1622
inst	-1623
▁setnew	-1624
ategory	-1625
▁seth	-1626
ploy	-1627
inary	-1628
▁retrie	-1629
sp	-1630
▁was	-1631
ync	-1632
▁sequence	-1633
▁before	-1634
▁resol	-1635
▁te	-1636
olume	-1637
app	-1638
gle	-1639
kip	-1640
tton	-1641
▁getindex	-1642
▁modi	-1643
▁cancel	-1644
graph	-1645
binding	-1646
▁0	-1647
peri	-1648
▁mod	-1649
mapper	-1650
asource	-1651
okie	-1652
domain	-1653
gh	-1654
▁access	-1655
ates	-1656
▁getservice	-1657
▁xcontentbuilder	-1658
icon	-1659
▁descri	-1660
signed	-1661
▁getcontent	-1662
▁post	-1663
omic	-1664
▁getresource	-1665
system	-1666
copy	-1667
member	-1668
▁password	-1669
comparator	-1670
stack	-1671
▁plugin	-1672
▁cordova	-1673
button	-1674
▁toxml	-1675
▁then	-1676
separator	-1677
▁isnew	-1678
▁getall	-1679
gor	-1680
▁ss	-1681
▁into	-1682
▁getse	-1683
▁ed	-1684
seconds	-1685
▁tou	-1686
▁apply	-1687
▁command	-1688
callback	-1689
params	-1690
▁system	-1691
unk	-1692
▁render	-1693
notification	-1694
▁setting	-1695
registry	-1696
folder	-1697
▁but	-1698
gorith	-1699
wer	-1700
datetime	-1701
uster	-1702
201	-1703
▁decode	-1704
plan	-1705
stract	-1706
deli	-1707
ateg	-1708
sol	-1709
gger	-1710
brary	-1711
▁range	-1712
fic	-1713
align	-1714
equal	-1715
▁getlog	-1716
▁getmessage	-1717
ures	-1718
ging	-1719
ubli	-1720
helper	-1721
scale	-1722
▁lay	-1723
zed	-1724
alized	-1725
sen	-1726
ique	-1727
socket	-1728
go	-1729
valu	-1730
parti	-1731
org	-1732
cret	-1733
repository	-1734
ile	-1735
▁implementation	-1736
▁draw	-1737
entity	-1738
gine	-1739
mension	-1740
failure	-1741
▁setstatus	-1742
▁getclass	-1743
sor	-1744
amount	-1745
wo	-1746
ell	-1747
vc	-1748
▁may	-1749
ability	-1750
cated	-1751
marker	-1752
quali	-1753
wait	-1754
acket	-1755
authenti	-1756
schema	-1757
▁fail	-1758
▁buf	-1759
vents	-1760
▁retrieve	-1761
▁extr	-1762
▁gettotal	-1763
calc	-1764
▁body	-1765
▁character	-1766
float	-1767
millis	-1768
side	-1769
▁enum	-1770
acy	-1771
▁visit	-1772
storage	-1773
star	-1774
hex	-1775
ableactionable	-1776
ical	-1777
servlet	-1778
▁getparent	-1779
▁auth	-1780
▁fac	-1781
▁dire	-1782
short	-1783
viron	-1784
▁atomic	-1785
▁activity	-1786
fs	-1787
ground	-1788
▁calcul	-1789
▁isfin	-1790
crement	-1791
▁toxmlstring	-1792
tiv	-1793
ick	-1794
ies	-1795
loc	-1796
atform	-1797
connect	-1798
▁extension	-1799
ude	-1800
ards	-1801
ative	-1802
istory	-1803
▁socket	-1804
▁associ	-1805
▁created	-1806
▁same	-1807
_2	-1808
results	-1809
af	-1810
args	-1811
▁begin	-1812
java	-1813
adapter	-1814
▁iter	-1815
artifact	-1816
▁provider	-1817
gram	-1818
left	-1819
▁typedesc	-1820
scalc	-1821
equalscalc	-1822
hashcodecalc	-1823
▁getsh	-1824
pay	-1825
matrix	-1826
▁setmodel	-1827
gex	-1828
▁toe	-1829
▁sing	-1830
▁perform	-1831
ek	-1832
▁auto	-1833
▁getstring	-1834
shopping	-1835
nown	-1836
iterator	-1837
▁mer	-1838
register	-1839
lip	-1840
▁getas	-1841
bl	-1842
▁handler	-1843
▁datetime	-1844
ime	-1845
▁getg	-1846
▁store	-1847
acces	-1848
▁getmodelclass	-1849
▁resetoriginal	-1850
dl	-1851
▁tocachemodel	-1852
▁iscachedmodel	-1853
▁isescapedmodel	-1854
▁setcachedmodel	-1855
▁toescapedmodel	-1856
▁getwrappedmodel	-1857
adi	-1858
▁norm	-1859
bar	-1860
▁sett	-1861
▁ok	-1862
▁rectangle	-1863
▁been	-1864
parser	-1865
matcher	-1866
branch	-1867
▁getstart	-1868
▁insert	-1869
ategy	-1870
▁setm	-1871
strategy	-1872
stri	-1873
dere	-1874
▁getpre	-1875
riteri	-1876
▁note	-1877
items	-1878
alendar	-1879
▁getprimarykey	-1880
▁ra	-1881
perator	-1882
▁gettime	-1883
body	-1884
conver	-1885
remove	-1886
▁getmin	-1887
▁setlast	-1888
exec	-1889
▁lock	-1890
init	-1891
vironment	-1892
locale	-1893
deserializer	-1894
alle	-1895
hashmap	-1896
nch	-1897
▁child	-1898
▁met	-1899
lot	-1900
structor	-1901
feed	-1902
▁back	-1903
▁geten	-1904
▁getusername	-1905
00	-1906
non	-1907
▁getwrapped	-1908
▁setprimarykey	-1909
▁writeto	-1910
package	-1911
teral	-1912
▁getx	-1913
gation	-1914
bility	-1915
ans	-1916
language	-1917
window	-1918
▁follow	-1919
▁getsub	-1920
ublish	-1921
transition	-1922
profile	-1923
nore	-1924
patch	-1925
ix	-1926
mpl	-1927
gorithm	-1928
ple	-1929
ished	-1930
scount	-1931
▁ar	-1932
stered	-1933
transform	-1934
▁getend	-1935
keys	-1936
▁receive	-1937
build	-1938
parent	-1939
▁remo	-1940
▁getserializer	-1941
aded	-1942
pose	-1943
structure	-1944
ookup	-1945
generator	-1946
inputstream	-1947
▁objects	-1948
▁timestamp	-1949
▁example	-1950
constraint	-1951
river	-1952
ify	-1953
can	-1954
[][]	-1955
▁false	-1956
sa	-1957
second	-1958
visible	-1959
oly	-1960
sure	-1961
▁sort	-1962
pc	-1963
logger	-1964
▁linked	-1965
▁fl	-1966
atches	-1967
certificate	-1968
▁move	-1969
▁top	-1970
▁link	-1971
pair	-1972
vailable	-1973
▁executor	-1974
▁net	-1975
sig	-1976
2014	-1977
custom	-1978
_1	-1979
▁imm	-1980
validation	-1981
security	-1982
▁getdeserializer	-1983
delete	-1984
reason	-1985
product	-1986
expression	-1987
oogle	-1988
▁isset	-1989
▁locale	-1990
▁gettypedesc	-1991
sentry	-1992
▁getrequest	-1993
▁initial	-1994
▁include	-1995
tf	-1996
▁device	-1997
alias	-1998
center	-1999
tify	-2000
titem	-2001
▁transaction	-2002
pth	-2003
▁getco	-2004
▁primary	-2005
stop	-2006
▁setin	-2007
mary	-2008
▁hasnext	-2009
▁connect	-2010
spec	-2011
managed	-2012
▁account	-2013
▁project	-2014
utdown	-2015
ama	-2016
▁flag	-2017
▁merge	-2018
ui	-2019
▁support	-2020
pir	-2021
used	-2022
segment	-2023
dk	-2024
mark	-2025
▁non	-2026
▁getint	-2027
▁isre	-2028
route	-2029
amazon	-2030
▁tri	-2031
▁authenti	-2032
▁setd	-2033
▁module	-2034
▁success	-2035
▁toune	-2036
▁medi	-2037
nchron	-2038
cla	-2039
ish	-2040
atic	-2041
handle	-2042
▁calendar	-2043
preferences	-2044
screen	-2045
dbc	-2046
▁getnext	-2047
listeners	-2048
its	-2049
▁sec	-2050
▁getuserid	-2051
ud	-2052
sm	-2053
▁pop	-2054
▁its	-2055
complete	-2056
ware	-2057
children	-2058
step	-2059
layer	-2060
ade	-2061
▁annotation	-2062
consumer	-2063
▁op	-2064
quire	-2065
▁release	-2066
▁stack	-2067
available	-2068
▁cer	-2069
volume	-2070
mt	-2071
cat	-2072
▁getsource	-2073
▁invoke	-2074
▁configure	-2075
ha	-2076
ceptor	-2077
▁defin	-2078
▁getdi	-2079
lick	-2080
▁layout	-2081
amer	-2082
▁setusername	-2083
▁previous	-2084
▁title	-2085
▁cur	-2086
▁compute	-2087
▁getobject	-2088
ready	-2089
▁replace	-2090
▁wrap	-2091
▁factory	-2092
cp	-2093
ump	-2094
chart	-2095
tags	-2096
▁condition	-2097
▁getversion	-2098
thing	-2099
rin	-2100
cket	-2101
menu	-2102
▁optional	-2103
vis	-2104
report	-2105
speci	-2106
note	-2107
lobal	-2108
commit	-2109
pha	-2110
card	-2111
ular	-2112
database	-2113
lf	-2114
▁must	-2115
sets	-2116
filename	-2117
▁getlabel	-2118
veri	-2119
▁each	-2120
verage	-2121
uple	-2122
▁frame	-2123
piration	-2124
<?>>	-2125
▁role	-2126
▁offset	-2127
registration	-2128
▁geo	-2129
▁getnumber	-2130
▁el	-2131
ffix	-2132
▁internal	-2133
script	-2134
ged	-2135
aggreg	-2136
var	-2137
▁font	-2138
▁wait	-2139
oop	-2140
▁raw	-2141
ice	-2142
▁sp	-2143
google	-2144
services	-2145
try	-2146
sted	-2147
oom	-2148
close	-2149
▁notification	-2150
▁serializable	-2151
▁prep	-2152
▁str	-2153
ision	-2154
▁graph	-2155
uted	-2156
▁mode	-2157
▁skip	-2158
imation	-2159
▁isentity	-2160
asure	-2161
ads	-2162
▁la	-2163
▁getfirst	-2164
▁ph	-2165
cluster	-2166
▁cap	-2167
cryption	-2168
itution	-2169
wise	-2170
kaleon	-2171
struction	-2172
▁selected	-2173
▁expression	-2174
classes	-2175
off	-2176
allowed	-2177
▁argument	-2178
allback	-2179
ext	-2180
sgi	-2181
bal	-2182
▁uuid	-2183
tostring	-2184
serializable	-2185
direction	-2186
sible	-2187
vigation	-2188
aly	-2189
▁effect	-2190
▁attributes	-2191
▁resolve	-2192
ake	-2193
atistic	-2194
▁getsize	-2195
urrency	-2196
▁gettitle	-2197
▁isfinder	-2198
platform	-2199
▁ip	-2200
▁prefix	-2201
▁loc	-2202
▁lang	-2203
▁callback	-2204
ln	-2205
lative	-2206
send	-2207
▁wri	-2208
nodes	-2209
reated	-2210
warn	-2211
failed	-2212
▁setuserid	-2213
userid	-2214
park	-2215
▁required	-2216
rop	-2217
selection	-2218
▁getconnection	-2219
▁snapshot	-2220
▁transform	-2221
▁getproperty	-2222
▁root	-2223
actions	-2224
cision	-2225
▁bound	-2226
▁setsub	-2227
percent	-2228
▁fire	-2229
▁paint	-2230
▁category	-2231
▁metadata	-2232
nected	-2233
▁trace	-2234
▁control	-2235
period	-2236
▁getimage	-2237
cr	-2238
▁setwrap	-2239
ings	-2240
controller	-2241
▁available	-2242
dit	-2243
ww	-2244
▁mark	-2245
▁param	-2246
▁origin	-2247
▁memory	-2248
▁parti	-2249
▁override	-2250
▁act	-2251
plit	-2252
attach	-2253
reshold	-2254
▁ms	-2255
▁getdate	-2256
med	-2257
▁describe	-2258
▁setdefault	-2259
▁getcompanyid	-2260
twe	-2261
letion	-2262
ech	-2263
▁setcompanyid	-2264
addres	-2265
▁bytebuffer	-2266
jection	-2267
▁parameters	-2268
▁results	-2269
asic	-2270
▁enable	-2271
▁abstract	-2272
revision	-2273
▁channel	-2274
parse	-2275
▁extract	-2276
gen	-2277
sv	-2278
wner	-2279
▁representation	-2280
stant	-2281
gra	-2282
rowser	-2283
▁associated	-2284
stribu	-2285
groups	-2286
▁getpath	-2287
information	-2288
▁db	-2289
book	-2290
print	-2291
ear	-2292
▁rot	-2293
▁charset	-2294
ressed	-2295
scheme	-2296
▁calculate	-2297
▁isvalid	-2298
httpclient	-2299
zip	-2300
ecutor	-2301
iver	-2302
elist	-2303
points	-2304
▁maximum	-2305
upload	-2306
▁checks	-2307
ters	-2308
▁two	-2309
▁timeout	-2310
▁getdisplay	-2311
enum	-2312
▁sample	-2313
▁managed	-2314
▁need	-2315
▁username	-2316
▁route	-2317
▁report	-2318
▁immutable	-2319
ors	-2320
blem	-2321
library	-2322
contact	-2323
devent	-2324
▁listeners	-2325
shal	-2326
pk	-2327
▁clean	-2328
▁options	-2329
dio	-2330
fixed	-2331
uting	-2332
▁getsy	-2333
support	-2334
▁gethost	-2335
witch	-2336
capacity	-2337
▁getparameter	-2338
stroke	-2339
plic	-2340
▁cluster	-2341
ployment	-2342
▁information	-2343
quo	-2344
root	-2345
▁getattribute	-2346
▁gettarget	-2347
▁gety	-2348
gate	-2349
tween	-2350
bose	-2351
after	-2352
32	-2353
before	-2354
schedu	-2355
▁pa	-2356
native	-2357
ram	-2358
▁gettext	-2359
▁container	-2360
fl	-2361
bin	-2362
▁width	-2363
▁setparent	-2364
gon	-2365
▁sql	-2366
just	-2367
faces	-2368
tom	-2369
rial	-2370
▁rule	-2371
receive	-2372
▁identifier	-2373
cies	-2374
▁select	-2375
dentials	-2376
month	-2377
▁destroy	-2378
props	-2379
lap	-2380
mask	-2381
success	-2382
▁getaddress	-2383
cep	-2384
▁ig	-2385
▁isin	-2386
threads	-2387
uppli	-2388
▁pd	-2389
eded	-2390
trigger	-2391
criteri	-2392
▁getnum	-2393
wi	-2394
allo	-2395
ouse	-2396
virt	-2397
cycle	-2398
covery	-2399
▁matrix	-2400
▁protocol	-2401
ship	-2402
▁isde	-2403
▁predicate	-2404
ached	-2405
▁style	-2406
namespace	-2407
lable	-2408
respon	-2409
▁inst	-2410
▁getcolumn	-2411
▁css	-2412
por	-2413
closed	-2414
▁setcontent	-2415
font	-2416
usage	-2417
verse	-2418
▁down	-2419
olygon	-2420
resources	-2421
▁elements	-2422
uate	-2423
sole	-2424
ao	-2425
▁icon	-2426
▁single	-2427
▁mon	-2428
▁join	-2429
prequest	-2430
legate	-2431
interceptor	-2432
ict	-2433
▁getstate	-2434
attemp	-2435
▁setstart	-2436
lines	-2437
verti	-2438
eration	-2439
▁running	-2440
▁more	-2441
cted	-2442
▁network	-2443
uture	-2444
▁keys	-2445
crole	-2446
▁pe	-2447
ipel	-2448
rou	-2449
▁notify	-2450
outputstream	-2451
▁headers	-2452
▁getcontext	-2453
ers	-2454
▁tra	-2455
▁feature	-2456
ni	-2457
▁sorted	-2458
character	-2459
leton	-2460
▁setkey	-2461
vm	-2462
ceiver	-2463
orization	-2464
md	-2465
▁full	-2466
begin	-2467
▁pool	-2468
ticket	-2469
[]>	-2470
▁secon	-2471
ordinate	-2472
xception	-2473
buf	-2474
udent	-2475
other	-2476
▁fill	-2477
▁getsu	-2478
▁dateformat	-2479
changelistener	-2480
▁bind	-2481
▁setpassword	-2482
ntries	-2483
▁getfield	-2484
ore	-2485
▁writer	-2486
cast	-2487
batch	-2488
delement	-2489
wri	-2490
ward	-2491
,?	-2492
ffec	-2493
havi	-2494
ince	-2495
updated	-2496
▁distance	-2497
▁react	-2498
cipal	-2499
rank	-2500
flags	-2501
itive	-2502
▁under	-2503
ocketaddress	-2504
▁ssl	-2505
depen	-2506
keep	-2507
▁getun	-2508
▁getcreatedate	-2509
andard	-2510
▁accept	-2511
▁equal	-2512
▁scale	-2513
country	-2514
persistence	-2515
ways	-2516
tentry	-2517
▁metric	-2518
extension	-2519
▁serialize	-2520
algorithm	-2521
▁istr	-2522
ferred	-2523
▁iterable	-2524
▁setcreatedate	-2525
pect	-2526
mbol	-2527
▁hashtable	-2528
scope	-2529
topic	-2530
initial	-2531
timer	-2532
▁settitle	-2533
rimitive	-2534
▁directory	-2535
▁pay	-2536
nu	-2537
▁pag	-2538
rows	-2539
teri	-2540
▁email	-2541
diction	-2542
elements	-2543
ling	-2544
▁disable	-2545
▁ag	-2546
simple	-2547
iss	-2548
started	-2549
▁geterror	-2550
jb	-2551
ton	-2552
city	-2553
virtual	-2554
transport	-2555
▁setwrapped	-2556
antity	-2557
single	-2558
sresult	-2559
rel	-2560
▁geturl	-2561
▁getpassword	-2562
▁allowed	-2563
▁getactionable	-2564
▁invalid	-2565
admin	-2566
▁enabled	-2567
equals	-2568
▁names	-2569
▁height	-2570
▁sync	-2571
▁calls	-2572
ticle	-2573
solute	-2574
▁getitem	-2575
full	-2576
▁they	-2577
▁priority	-2578
scape	-2579
login	-2580
▁sign	-2581
metrics	-2582
relation	-2583
▁matches	-2584
▁exists	-2585
ges	-2586
coder	-2587
return	-2588
▁getpage	-2589
conf	-2590
▁endpoint	-2591
whi	-2592
▁okhttpclient	-2593
▁pos	-2594
ntype	-2595
▁scri	-2596
dn	-2597
tax	-2598
▁execution	-2599
▁comparator	-2600
rag	-2601
history	-2602
▁pas	-2603
▁items	-2604
distance	-2605
_0	-2606
ize	-2607
▁foo	-2608
bounds	-2609
▁verify	-2610
▁removes	-2611
▁duration	-2612
▁setmessage	-2613
duration	-2614
▁setdata	-2615
cend	-2616
▁api	-2617
factor	-2618
etup	-2619
▁part	-2620
assign	-2621
▁registr	-2622
cked	-2623
pected	-2624
section	-2625
▁outputstream	-2626
activ	-2627
delivery	-2628
timezone	-2629
▁servlet	-2630
▁encoding	-2631
bytearray	-2632
▁setuseruuid	-2633
ipeline	-2634
▁getserver	-2635
▁throwable	-2636
▁getuseruuid	-2637
vided	-2638
join	-2639
▁clas	-2640
redit	-2641
entation	-2642
▁template	-2643
derror	-2644
ragment	-2645
▁package	-2646
fro	-2647
osite	-2648
▁unit	-2649
wrapper	-2650
dered	-2651
alive	-2652
ounce	-2653
rice	-2654
partition	-2655
connections	-2656
select	-2657
▁appro	-2658
▁setsh	-2659
▁dispose	-2660
▁statement	-2661
aws	-2662
sive	-2663
▁classloader	-2664
clar	-2665
words	-2666
exist	-2667
▁mock	-2668
▁repository	-2669
▁scope	-2670
▁remote	-2671
trace	-2672
dateformat	-2673
master	-2674
weight	-2675
now	-2676
itional	-2677
dynamic	-2678
literal	-2679
▁jsonwriter	-2680
11	-2681
tip	-2682
norm	-2683
▁raise	-2684
▁placeholdertype	-2685
js	-2686
mime	-2687
throw	-2688
▁ensure	-2689
▁instances	-2690
▁isex	-2691
question	-2692
ttom	-2693
secret	-2694
▁tests	-2695
▁where	-2696
received	-2697
centlayout	-2698
jector	-2699
derer	-2700
created	-2701
▁counter	-2702
▁app	-2703
▁member	-2704
▁certificate	-2705
▁reader	-2706
readonly	-2707
▁createget	-2708
ighlight	-2709
▁variable	-2710
iler	-2711
phone	-2712
targeting	-2713
cs	-2714
has	-2715
▁product	-2716
▁enumeration	-2717
home	-2718
▁present	-2719
▁cla	-2720
served	-2721
ero	-2722
indi	-2723
reque	-2724
processor	-2725
pending	-2726
▁prepare	-2727
▁both	-2728
▁grid	-2729
▁refresh	-2730
background	-2731
▁removeall	-2732
▁evalu	-2733
▁concurrent	-2734
html	-2735
▁than	-2736
priority	-2737
▁stringbuilder	-2738
amera	-2739
▁added	-2740
▁getport	-2741
▁getlocal	-2742
▁getlocation	-2743
archive	-2744
rot	-2745
▁jsonobject	-2746
tsocketaddress	-2747
▁comment	-2748
▁temp	-2749
stribution	-2750
ann	-2751
publish	-2752
panel	-2753
▁cookie	-2754
▁shutdown	-2755
▁policy	-2756
resultset	-2757
▁security	-2758
quality	-2759
▁testset	-2760
issue	-2761
ai	-2762
▁mis	-2763
adding	-2764
tile	-2765
enumber	-2766
save	-2767
▁hand	-2768
vertex	-2769
▁timezone	-2770
schedule	-2771
▁printwriter	-2772
lav	-2773
▁based	-2774
vend	-2775
her	-2776
▁progress	-2777
▁setcurrent	-2778
urch	-2779
▁getcomp	-2780
▁settings	-2781
arge	-2782
release	-2783
▁permission	-2784
big	-2785
whe	-2786
▁getwidth	-2787
summary	-2788
▁useful	-2789
▁println	-2790
▁provided	-2791
also	-2792
▁expandobridge	-2793
▁login	-2794
▁orderby	-2795
methods	-2796
▁getclassname	-2797
elp	-2798
verb	-2799
▁storage	-2800
attachment	-2801
click	-2802
destroy	-2803
verifier	-2804
seq	-2805
tasks	-2806
▁flush	-2807
▁getmodifieddate	-2808
▁us	-2809
msg	-2810
oft	-2811
nets	-2812
trac	-2813
▁prin	-2814
▁push	-2815
▁am	-2816
expand	-2817
rating	-2818
▁setg	-2819
▁tool	-2820
▁bitmap	-2821
▁schedu	-2822
▁mapping	-2823
tere	-2824
unch	-2825
idget	-2826
▁getto	-2827
converter	-2828
cene	-2829
▁dynamic	-2830
▁getgroupid	-2831
metry	-2832
▁otherwise	-2833
▁signature	-2834
ift	-2835
havior	-2836
▁binding	-2837
media	-2838
▁jdbc	-2839
ba	-2840
asset	-2841
▁lookup	-2842
▁setend	-2843
atistics	-2844
▁hi	-2845
inge	-2846
oint	-2847
▁right	-2848
▁getlong	-2849
▁white	-2850
▁getclient	-2851
▁getsession	-2852
monitor	-2853
formatter	-2854
▁hostname	-2855
▁getter	-2856
▁tab	-2857
▁getme	-2858
▁binary	-2859
▁setmodifieddate	-2860
dimage	-2861
▁getosgi	-2862
paint	-2863
▁events	-2864
▁stat	-2865
marshal	-2866
urchase	-2867
▁domain	-2868
fec	-2869
▁visi	-2870
▁getmap	-2871
ign	-2872
units	-2873
2.	-2874
async	-2875
▁getl	-2876
cessed	-2877
addresses	-2878
execution	-2879
▁also	-2880
▁spark	-2881
▁private	-2882
alpha	-2883
shape	-2884
▁getosgiservice	-2885
ips	-2886
datasource	-2887
asc	-2888
sort	-2889
draw	-2890
running	-2891
▁retrieves	-2892
▁some	-2893
managedbean	-2894
debug	-2895
common	-2896
▁datatype	-2897
vcc	-2898
▁verbose	-2899
ru	-2900
ssl	-2901
invo	-2902
override	-2903
shard	-2904
bucket	-2905
coming	-2906
▁starttime	-2907
▁inet	-2908
▁tear	-2909
▁increment	-2910
messages	-2911
threshold	-2912
ank	-2913
vendor	-2914
amazonaws	-2915
depth	-2916
▁hsql	-2917
filters	-2918
▁active	-2919
roid	-2920
known	-2921
▁registered	-2922
owner	-2923
cluded	-2924
▁getv	-2925
▁getnode	-2926
▁indicate	-2927
dictionary	-2928
mob	-2929
limi	-2930
tended	-2931
▁getrole	-2932
▁getuuid	-2933
connected	-2934
dto	-2935
loaded	-2936
▁public	-2937
▁region	-2938
requency	-2939
fered	-2940
▁generated	-2941
paces	-2942
▁see	-2943
jav	-2944
titude	-2945
going	-2946
my	-2947
velo	-2948
cookie	-2949
authentication	-2950
▁>	-2951
mpro	-2952
oauth	-2953
▁getcolor	-2954
ransi	-2955
tobject	-2956
▁datasource	-2957
▁setmin	-2958
rollback	-2959
▁setlabel	-2960
eric	-2961
▁schedule	-2962
▁getselected	-2963
cell	-2964
contents	-2965
▁transport	-2966
atures	-2967
orizon	-2968
▁getevent	-2969
bits	-2970
▁setpre	-2971
cost	-2972
none	-2973
pient	-2974
▁seten	-2975
balance	-2976
▁getheight	-2977
download	-2978
▁scinterface	-2979
pix	-2980
▁zz	-2981
player	-2982
arraylist	-2983
validator	-2984
socialcoding	-2985
jar	-2986
▁rest	-2987
comments	-2988
▁isp	-2989
patcher	-2990
▁commit	-2991
▁language	-2992
cir	-2993
▁dimension	-2994
payment	-2995
ventory	-2996
▁setuuid	-2997
uite	-2998
▁hex	-2999
dency	-3000
expando	-3001
▁unique	-3002
▁inetaddress	-3003
white	-3004
ather	-3005
ness	-3006
defined	-3007
▁currently	-3008
▁geticon	-3009
webview	-3010
▁getbytes	-3011
tra	-3012
▁finish	-3013
zy	-3014
▁namespace	-3015
▁ui	-3016
▁getline	-3017
▁setloglevel	-3018
▁oauth	-3019
alization	-3020
▁settext	-3021
▁teardown	-3022
sn	-3023
ords	-3024
remote	-3025
paths	-3026
gative	-3027
scheduler	-3028
webservices	-3029
chor	-3030
▁star	-3031
▁setversion	-3032
▁reason	-3033
head	-3034
_2.	-3035
_2014	-3036
_2014_2.	-3037
netsuite	-3038
dtt	-3039
▁done	-3040
▁basic	-3041
▁stage	-3042
classloader	-3043
cho	-3044
▁just	-3045
console	-3046
ouncements	-3047
▁getaction	-3048
beanidentifier	-3049
▁rotate	-3050
chat	-3051
▁zero	-3052
▁files	-3053
▁authentication	-3054
cipient	-3055
▁shared	-3056
geo	-3057
price	-3058
▁mime	-3059
bb	-3060
▁shape	-3061
▁getview	-3062
reset	-3063
▁geti	-3064
▁fields	-3065
required	-3066
produ	-3067
▁interface	-3068
▁dif	-3069
▁between	-3070
▁complete	-3071
lain	-3072
pages	-3073
intent	-3074
▁limit	-3075
▁resources	-3076
vccversion	-3077
▁setgroupid	-3078
em	-3079
show	-3080
tached	-3081
datatype	-3082
processing	-3083
▁following	-3084
def	-3085
▁sum	-3086
▁left	-3087
▁submit	-3088
tick	-3089
username	-3090
▁children	-3091
▁quo	-3092
▁passed	-3093
▁edge	-3094
▁super	-3095
orizontal	-3096
references	-3097
ustomer	-3098
▁runtime	-3099
actor	-3100
▁rows	-3101
render	-3102
itude	-3103
▁suppli	-3104
▁getcache	-3105
objects	-3106
cii	-3107
ality	-3108
▁batch	-3109
peed	-3110
disable	-3111
▁settotal	-3112
permissions	-3113
circle	-3114
▁customer	-3115
▁io	-3116
this	-3117
urse	-3118
▁found	-3119
ib	-3120
ized	-3121
scan	-3122
▁gethttp	-3123
▁getregi	-3124
▁gettool	-3125
▁setresource	-3126
meta	-3127
▁setshow	-3128
pol	-3129
hint	-3130
erarch	-3131
safe	-3132
lsocket	-3133
navigation	-3134
sedtime	-3135
infotype	-3136
destination	-3137
▁getsequence	-3138
tch	-3139
heet	-3140
aggregation	-3141
hy	-3142
score	-3143
bed	-3144
▁getis	-3145
dimension	-3146
▁getlength	-3147
expandobridge	-3148
dfp	-3149
person	-3150
ced	-3151
▁bl	-3152
▁er	-3153
agno	-3154
firm	-3155
chunk	-3156
vable	-3157
▁filename	-3158
▁constructor	-3159
▁types	-3160
columns	-3161
▁gettimestamp	-3162
ffi	-3163
email	-3164
prote	-3165
▁getposition	-3166
▁step	-3167
refresh	-3168
▁sw	-3169
treenode	-3170
bre	-3171
idle	-3172
lower	-3173
trust	-3174
▁external	-3175
faul	-3176
vance	-3177
sample	-3178
▁q	-3179
rup	-3180
byid	-3181
▁indi	-3182
▁findall	-3183
▁formattest	-3184
▁executorservice	-3185
▁setsource	-3186
utf	-3187
▁matching	-3188
lend	-3189
▁iso	-3190
▁feed	-3191
▁upload	-3192
▁getcl	-3193
▁geta	-3194
▁unset	-3195
▁2	-3196
diff	-3197
▁pair	-3198
suffix	-3199
worker	-3200
▁addall	-3201
acts	-3202
secure	-3203
ffective	-3204
▁webview	-3205
cancel	-3206
panded	-3207
notnull	-3208
▁adderror	-3209
keho	-3210
achange	-3211
▁tostringhelper	-3212
▁ist	-3213
kehoach	-3214
maining	-3215
▁expand	-3216
mimetype	-3217
▁getproxy	-3218
▁getnumberof	-3219
bus	-3220
ddm	-3221
rough	-3222
▁track	-3223
▁getauth	-3224
▁getcount	-3225
sess	-3226
mutable	-3227
subcategory	-3228
the	-3229
▁vec	-3230
termine	-3231
acke	-3232
tract	-3233
ji	-3234
▁mutable	-3235
ancel	-3236
▁setr	-3237
binary	-3238
byname	-3239
▁timer	-3240
fecycle	-3241
servletrequest	-3242
▁schema	-3243
lsocketfactory	-3244
board	-3245
nchronous	-3246
▁workflow	-3247
sdk	-3248
warning	-3249
▁parser	-3250
▁termin	-3251
quantity	-3252
sitive	-3253
▁getgroup	-3254
dy	-3255
charge	-3256
▁helper	-3257
▁vertex	-3258
▁determine	-3259
cy	-3260
▁allo	-3261
added	-3262
dicon	-3263
coords	-3264
▁static	-3265
requestid	-3266
▁readfrom	-3267
ptions	-3268
▁getjob	-3269
▁setservice	-3270
edge	-3271
tten	-3272
▁asy	-3273
empty	-3274
renderer	-3275
constructor	-3276
prin	-3277
▁getlayout	-3278
gb	-3279
ferent	-3280
▁destination	-3281
unique	-3282
▁identity	-3283
▁threadlocal	-3284
syste	-3285
priate	-3286
claration	-3287
▁interval	-3288
▁failure	-3289
mul	-3290
▁canon	-3291
▁warning	-3292
▁normalize	-3293
packet	-3294
▁chain	-3295
▁split	-3296
▁numberof	-3297
▁ws	-3298
cipant	-3299
charset	-3300
ants	-3301
▁window	-3302
pu	-3303
seri	-3304
▁already	-3305
predicate	-3306
yp	-3307
ics	-3308
adow	-3309
▁indexof	-3310
▁cached	-3311
replace	-3312
▁amount	-3313
mpar	-3314
rott	-3315
ading	-3316
▁none	-3317
tempty	-3318
▁validation	-3319
sex	-3320
ggest	-3321
milli	-3322
actuate	-3323
▁trigger	-3324
▁getemail	-3325
foo	-3326
lemap	-3327
▁day	-3328
separ	-3329
ourcel	-3330
▁setcon	-3331
▁localiz	-3332
ross	-3333
▁setto	-3334
swith	-3335
▁scal	-3336
▁trust	-3337
▁unregister	-3338
▁getresponse	-3339
irt	-3340
▁within	-3341
addr	-3342
▁free	-3343
blocking	-3344
kaleonode	-3345
▁getoutput	-3346
cc	-3347
pop	-3348
random	-3349
cending	-3350
▁setdate	-3351
ilability	-3352
codes	-3353
lying	-3354
invalid	-3355
▁identi	-3356
▁getelement	-3357
iction	-3358
▁audit	-3359
▁sa	-3360
▁conf	-3361
pirationdate	-3362
pring	-3363
▁real	-3364
▁getcategory	-3365
tls	-3366
anti	-3367
tems	-3368
arcrole	-3369
inbytes	-3370
▁getheader	-3371
▁marker	-3372
▁setaddress	-3373
cart	-3374
tries	-3375
achine	-3376
digest	-3377
dataset	-3378
supported	-3379
▁artifact	-3380
initialize	-3381
lyph	-3382
bridge	-3383
▁generic	-3384
adius	-3385
linked	-3386
verride	-3387
▁gettable	-3388
adat	-3389
chars	-3390
▁setst	-3391
▁button	-3392
▁mil	-3393
ilreason	-3394
▁methods	-3395
▁driver	-3396
▁selection	-3397
eli	-3398
sinh	-3399
▁geturi	-3400
▁import	-3401
▁correspon	-3402
ager	-3403
ampa	-3404
▁getal	-3405
▁getrow	-3406
▁appropriate	-3407
erarchy	-3408
▁second	-3409
▁setstate	-3410
cus	-3411
come	-3412
pired	-3413
▁setter	-3414
▁stored	-3415
▁messages	-3416
▁translate	-3417
▁getcre	-3418
lector	-3419
loading	-3420
▁remov	-3421
▁profile	-3422
▁unknown	-3423
operator	-3424
▁treenode	-3425
▁contenttype	-3426
▁such	-3427
scriber	-3428
▁isactive	-3429
announcements	-3430
scroll	-3431
widget	-3432
currency	-3433
ordinates	-3434
sect	-3435
famil	-3436
▁restore	-3437
otification	-3438
▁shouldallow	-3439
cd	-3440
ater	-3441
chain	-3442
▁setx	-3443
family	-3444
legacy	-3445
stoken	-3446
▁readobject	-3447
recentlayout	-3448
matic	-3449
meetup	-3450
▁setis	-3451
measure	-3452
▁setsize	-3453
arguments	-3454
nex	-3455
▁card	-3456
dlfile	-3457
▁logic	-3458
▁provide	-3459
▁setnext	-3460
▁original	-3461
isdn	-3462
▁depen	-3463
▁manager	-3464
less	-3465
▁try	-3466
▁since	-3467
instances	-3468
ulk	-3469
blob	-3470
tivate	-3471
asstring	-3472
orversion	-3473
▁finalize	-3474
▁characters	-3475
umb	-3476
ming	-3477
scrip	-3478
▁word	-3479
▁asset	-3480
animation	-3481
acl	-3482
▁cleanup	-3483
▁getchild	-3484
▁seterror	-3485
ku	-3486
codec	-3487
bottom	-3488
▁owner	-3489
partment	-3490
▁actions	-3491
▁cordovawebview	-3492
aw	-3493
▁shard	-3494
creator	-3495
ization	-3496
components	-3497
ife	-3498
bind	-3499
irachange	-3500
▁wit	-3501
fetch	-3502
prop	-3503
▁environment	-3504
▁popul	-3505
▁always	-3506
▁setrole	-3507
video	-3508
feedback	-3509
ee	-3510
▁pi	-3511
▁ama	-3512
▁getpri	-3513
▁deleted	-3514
idden	-3515
1_	-3516
nsor	-3517
▁inside	-3518
▁require	-3519
▁specific	-3520
texception	-3521
▁setclassname	-3522
crypt	-3523
tequals	-3524
▁cursor	-3525
▁cos	-3526
▁defined	-3527
▁loglevel	-3528
▁pagination	-3529
activityresult	-3530
▁pol	-3531
sid	-3532
tered	-3533
▁delay	-3534
without	-3535
criteria	-3536
observer	-3537
activation	-3538
responsetype	-3539
gend	-3540
sation	-3541
▁amazon	-3542
▁supported	-3543
nan	-3544
uby	-3545
▁che	-3546
▁library	-3547
stitution	-3548
▁md	-3549
▁ignore	-3550
▁construct	-3551
instruction	-3552
mun	-3553
alert	-3554
▁getnew	-3555
ligh	-3556
road	-3557
▁produ	-3558
self	-3559
▁vide	-3560
ecution	-3561
▁determin	-3562
▁linkedlist	-3563
agnostic	-3564
▁sethost	-3565
▁subject	-3566
logging	-3567
▁converts	-3568
dav	-3569
les	-3570
logy	-3571
attempt	-3572
▁secret	-3573
finished	-3574
poo	-3575
▁cle	-3576
states	-3577
▁direct	-3578
▁gettask	-3579
▁getdisplayname	-3580
peat	-3581
world	-3582
▁tags	-3583
▁modification	-3584
true	-3585
▁engine	-3586
▁containing	-3587
team	-3588
▁entries	-3589
▁setn	-3590
records	-3591
identity	-3592
▁jav	-3593
▁supports	-3594
datap	-3595
roject	-3596
virtualhost	-3597
des	-3598
oul	-3599
▁isenabled	-3600
rant	-3601
▁ine	-3602
inner	-3603
locked	-3604
▁setposition	-3605
ismet	-3606
▁script	-3607
▁packet	-3608
▁player	-3609
▁modified	-3610
zero	-3611
▁javax	-3612
▁reinit	-3613
▁sys	-3614
▁existing	-3615
▁registry	-3616
ases	-3617
▁take	-3618
▁failed	-3619
▁settime	-3620
▁runnable	-3621
withdynamicquery	-3622
▁coordinate	-3623
vn	-3624
zz	-3625
▁go	-3626
ture	-3627
▁utf	-3628
▁being	-3629
▁getout	-3630
▁getmethod	-3631
subscription	-3632
▁setproperty	-3633
▁proxyselector	-3634
anchor	-3635
dential	-3636
▁global	-3637
starttime	-3638
ounds	-3639
vtype	-3640
▁absent	-3641
▁seturl	-3642
serialize	-3643
fully	-3644
▁digest	-3645
week	-3646
▁media	-3647
regex	-3648
watch	-3649
▁audio	-3650
▁operator	-3651
▁setqueue	-3652
sby	-3653
▁play	-3654
▁attach	-3655
▁removel	-3656
▁generator	-3657
sdkinternal	-3658
bs	-3659
▁gl	-3660
completion	-3661
▁wi	-3662
area	-3663
find	-3664
▁acc	-3665
pause	-3666
tuple	-3667
▁indicates	-3668
▁getcreated	-3669
more	-3670
acing	-3671
legal	-3672
delimi	-3673
mobile	-3674
dif	-3675
bitmap	-3676
▁nodes	-3677
lst	-3678
nested	-3679
▁minimum	-3680
▁setfirst	-3681
▁getboolean	-3682
arm	-3683
anim	-3684
▁attemp	-3685
▁finished	-3686
rs	-3687
▁aggreg	-3688
▁gettag	-3689
dmodeltype	-3690
authenticator	-3691
www	-3692
vari	-3693
ll	-3694
tio	-3695
cryp	-3696
marke	-3697
▁volume	-3698
variables	-3699
▁capacity	-3700
▁fs	-3701
anis	-3702
attr	-3703
compati	-3704
labor	-3705
olution	-3706
▁getlist	-3707
completed	-3708
▁constraint	-3709
mig	-3710
▁ass	-3711
▁fast	-3712
▁href	-3713
fragment	-3714
lev	-3715
tool	-3716
shift	-3717
▁getbase	-3718
2_	-3719
▁vn	-3720
grade	-3721
▁prop	-3722
▁escape	-3723
shi	-3724
deri	-3725
tili	-3726
▁var	-3727
▁standard	-3728
power	-3729
▁setfile	-3730
orientation	-3731
▁underlying	-3732
▁gr	-3733
20140	-3734
▁blob	-3735
multiple	-3736
requests	-3737
▁metrics	-3738
▁buffered	-3739
association	-3740
▁getaccount	-3741
▁simp	-3742
abstract	-3743
▁servicename	-3744
lent	-3745
problem	-3746
visitor	-3747
▁closed	-3748
▁getformat	-3749
rex	-3750
cert	-3751
clared	-3752
▁camera	-3753
davprops	-3754
▁accessor	-3755
future	-3756
▁setport	-3757
authorization	-3758
suite	-3759
livery	-3760
objectid	-3761
▁toarray	-3762
leaf	-3763
slot	-3764
▁typ	-3765
▁def	-3766
clean	-3767
switch	-3768
▁export	-3769
▁getproperties	-3770
cense	-3771
▁setw	-3772
▁getext	-3773
ationdate	-3774
indicator	-3775
▁localizable	-3776
eventlistener	-3777
nector	-3778
▁calling	-3779
networking	-3780
▁getremote	-3781
▁setsequence	-3782
▁game	-3783
▁uses	-3784
absolute	-3785
xcontent	-3786
▁setcolor	-3787
▁testequals	-3788
hand	-3789
▁cell	-3790
▁reads	-3791
▁expected	-3792
oun	-3793
coded	-3794
nored	-3795
▁live	-3796
▁peek	-3797
submit	-3798
▁setse	-3799
customer	-3800
▁country	-3801
dexception	-3802
▁setdisplay	-3803
cm	-3804
▁ejb	-3805
▁jni	-3806
blocks	-3807
redirect	-3808
▁getquery	-3809
▁valuebuilder	-3810
stim	-3811
atabase	-3812
deleted	-3813
▁setrequest	-3814
▁assertequals	-3815
vg	-3816
jax	-3817
sdkinternallist	-3818
public	-3819
ration	-3820
resolution	-3821
▁canonical	-3822
alth	-3823
dented	-3824
formed	-3825
leme	-3826
delta	-3827
reater	-3828
install	-3829
numberof	-3830
dt	-3831
analy	-3832
▁corresponding	-3833
live	-3834
▁fil	-3835
gable	-3836
▁getshort	-3837
▁selector	-3838
▁scan	-3839
strings	-3840
▁setpro	-3841
sq	-3842
trash	-3843
▁args	-3844
ntities	-3845
kaleotask	-3846
ras	-3847
▁shoul	-3848
registered	-3849
terms	-3850
arrayof	-3851
ighligh	-3852
▁setproxy	-3853
▁getoptions	-3854
uring	-3855
▁setl	-3856
scribe	-3857
queryutil	-3858
▁edit	-3859
▁intersect	-3860
▁about	-3861
configure	-3862
▁multiple	-3863
redu	-3864
▁writeqname	-3865
ifest	-3866
▁obtain	-3867
▁?	-3868
itemp	-3869
jected	-3870
▁named	-3871
▁topic	-3872
listtype	-3873
▁segment	-3874
jsonobject	-3875
▁invokemethod	-3876
▁dump	-3877
▁without	-3878
fies	-3879
subject	-3880
▁getshow	-3881
▁polygon	-3882
visibility	-3883
upli	-3884
▁val	-3885
▁islog	-3886
▁changed	-3887
▁beandefinition	-3888
mod	-3889
dialog	-3890
▁getcode	-3891
▁encryption	-3892
final	-3893
▁getentity	-3894
pack	-3895
▁cir	-3896
▁keep	-3897
▁virt	-3898
unknown	-3899
constant	-3900
dencies	-3901
tprequest	-3902
ories	-3903
▁initialized	-3904
resume	-3905
▁world	-3906
nonnull	-3907
student	-3908
▁setattribute	-3909
ceip	-3910
loyee	-3911
behavior	-3912
▁waitfor	-3913
▁reactmain	-3914
▁unti	-3915
atalog	-3916
▁setsy	-3917
alt	-3918
cursor	-3919
ilities	-3920
retries	-3921
kind	-3922
vesinh	-3923
▁common	-3924
▁getorder	-3925
whitespace	-3926
▁animation	-3927
servable	-3928
▁consumer	-3929
disk	-3930
launch	-3931
▁space	-3932
pointer	-3933
▁setauto	-3934
▁delegate	-3935
▁transition	-3936
grid	-3937
▁bits	-3938
▁plan	-3939
▁measure	-3940
▁getdouble	-3941
▁partition	-3942
distribution	-3943
▁preferences	-3944
uff	-3945
▁sm	-3946
▁mul	-3947
static	-3948
▁agent	-3949
akismet	-3950
rotation	-3951
▁redirect	-3952
▁getthread	-3953
▁getapplication	-3954
▁old	-3955
▁mouse	-3956
ampaign	-3957
▁contact	-3958
deployment	-3959
iod	-3960
pass	-3961
▁sety	-3962
▁align	-3963
institution	-3964
▁navigation	-3965
▁setcategory	-3966
_4	-3967
atal	-3968
ignore	-3969
pat	-3970
timi	-3971
▁fro	-3972
▁pix	-3973
features	-3974
tevent	-3975
▁additional	-3976
▁onreceived	-3977
▁displayname	-3978
serv	-3979
preference	-3980
▁bundlecontext	-3981
modifier	-3982
negative	-3983
▁setemail	-3984
biginteger	-3985
minute	-3986
▁different	-3987
▁setcreated	-3988
ace	-3989
tect	-3990
▁trim	-3991
driver	-3992
heap	-3993
aterial	-3994
▁buffere	-3995
▁dataset	-3996
dispatcher	-3997
▁getfilename	-3998
▁getcomponent	-3999
ily	-4000
grad	-4001
arion	-4002
ither	-4003
▁round	-4004
▁browser	-4005
▁hashset	-4006
▁pipeline	-4007
ok	-4008
letitem	-4009
periment	-4010
sessment	-4011
▁performs	-4012
presentation	-4013
andid	-4014
unsigned	-4015
▁getdevice	-4016
▁want	-4017
statistics	-4018
▁setoutput	-4019
▁getduration	-4020
inte	-4021
▁meta	-4022
▁issue	-4023
browser	-4024
mediate	-4025
▁settarget	-4026
▁setselected	-4027
tin	-4028
sfor	-4029
classi	-4030
▁period	-4031
validate	-4032
▁gettoken	-4033
roker	-4034
upper	-4035
uncated	-4036
pluginhost	-4037
▁resultset	-4038
serialization	-4039
▁subscription	-4040
dd	-4041
aml	-4042
game	-4043
porter	-4044
routing	-4045
recipient	-4046
▁atomiclong	-4047
▁charsequence	-4048
▁js	-4049
▁getcol	-4050
▁getstyle	-4051
shiprequest	-4052
micro	-4053
stext	-4054
▁incre	-4055
entries	-4056
car	-4057
reg	-4058
curacy	-4059
import	-4060
▁extra	-4061
endpoint	-4062
typename	-4063
▁requests	-4064
bytebuffer	-4065
▁singleton	-4066
▁definition	-4067
quote	-4068
▁like	-4069
preview	-4070
initialized	-4071
rp	-4072
dig	-4073
blog	-4074
▁mid	-4075
disabled	-4076
senabled	-4077
▁atomicinteger	-4078
▁persistent	-4079
kaleocondition	-4080
▁getad	-4081
▁video	-4082
▁detail	-4083
▁setuse	-4084
▁geometry	-4085
sth	-4086
unc	-4087
▁ec	-4088
sity	-4089
serve	-4090
lookup	-4091
▁getor	-4092
▁virtual	-4093
▁download	-4094
tof	-4095
vap	-4096
grou	-4097
▁dir	-4098
wning	-4099
licies	-4100
verity	-4101
forread	-4102
website	-4103
▁another	-4104
quiva	-4105
margin	-4106
▁resets	-4107
allentry	-4108
▁getconfig	-4109
▁connectionpool	-4110
10	-4111
lon	-4112
typ	-4113
force	-4114
runtime	-4115
▁writes	-4116
relative	-4117
primarykey	-4118
gl	-4119
uc	-4120
uter	-4121
▁head	-4122
andwidth	-4123
uplicate	-4124
▁createe	-4125
bi	-4126
▁analy	-4127
contains	-4128
receiver	-4129
links	-4130
annotations	-4131
fc	-4132
inu	-4133
bill	-4134
talend	-4135
▁throws	-4136
tensions	-4137
iness	-4138
▁prev	-4139
▁params	-4140
▁testing	-4141
principal	-4142
void	-4143
ffici	-4144
munic	-4145
ressor	-4146
▁intent	-4147
▁switch	-4148
▁getfrom	-4149
▁routing	-4150
▁evaluate	-4151
buffersize	-4152
webservice	-4153
asep	-4154
orary	-4155
▁flags	-4156
▁getresult	-4157
▁setclient	-4158
▁containskey	-4159
▁zone	-4160
▁setfield	-4161
▁setlocation	-4162
gree	-4163
sume	-4164
▁pass	-4165
editor	-4166
insert	-4167
▁acces	-4168
▁getbit	-4169
▁relative	-4170
life	-4171
mbed	-4172
article	-4173
▁validator	-4174
tals	-4175
▁inser	-4176
▁setcomp	-4177
▁algorithm	-4178
▁therefore	-4179
usertracker	-4180
removed	-4181
snapshot	-4182
▁classname	-4183
cke	-4184
<?,?	-4185
reet	-4186
audio	-4187
shared	-4188
▁month	-4189
private	-4190
atis	-4191
ours	-4192
anging	-4193
exists	-4194
▁alias	-4195
▁compar	-4196
▁person	-4197
▁nothing	-4198
▁setimage	-4199
real	-4200
ocity	-4201
▁setj	-4202
ournal	-4203
▁until	-4204
cording	-4205
polygon	-4206
▁setext	-4207
defaults	-4208
▁arguments	-4209
▁scheduled	-4210
▁clearcache	-4211
▁tuple	-4212
recordref	-4213
lert	-4214
atten	-4215
false	-4216
▁term	-4217
▁supplied	-4218
▁elap	-4219
alizer	-4220
ranche	-4221
▁payment	-4222
▁getdatabase	-4223
▁immutablelist	-4224
▁msg	-4225
▁zip	-4226
okies	-4227
▁safe	-4228
lavour	-4229
symbol	-4230
▁nested	-4231
producer	-4232
tenabled	-4233
▁configured	-4234
▁dns	-4235
under	-4236
▁disk	-4237
global	-4238
poolsize	-4239
▁deployment	-4240
phase	-4241
calcul	-4242
limited	-4243
lementation	-4244
kaleotransition	-4245
▁screen	-4246
▁clarion	-4247
▁setevent	-4248
ym	-4249
paste	-4250
▁activ	-4251
▁getbody	-4252
▁getfont	-4253
▁gethref	-4254
▁direction	-4255
nco	-4256
many	-4257
users	-4258
witter	-4259
sis	-4260
acked	-4261
allocate	-4262
▁invoked	-4263
▁menu	-4264
ending	-4265
working	-4266
frequency	-4267
qualifier	-4268
lexception	-4269
▁requested	-4270
▁sq	-4271
▁final	-4272
▁fixed	-4273
hexstring	-4274
▁off	-4275
ascii	-4276
plicit	-4277
ustomi	-4278
▁refer	-4279
▁adjust	-4280
▁getcheck	-4281
▁getcontenttype	-4282
vt	-4283
pher	-4284
▁ope	-4285
conci	-4286
▁retry	-4287
▁withe	-4288
▁getpay	-4289
▁classes	-4290
▁getroot	-4291
▁injector	-4292
▁mimetype	-4293
▁multiply	-4294
▁processing	-4295
▁setconnection	-4296
pas	-4297
▁vm	-4298
▁adap	-4299
▁drop	-4300
nowled	-4301
visited	-4302
fficient	-4303
matching	-4304
▁decimal	-4305
▁getreference	-4306
▁actual	-4307
▁cordovap	-4308
▁getinput	-4309
▁gettrans	-4310
▁getprovider	-4311
▁setpath	-4312
.0	-4313
clear	-4314
▁sent	-4315
▁alpha	-4316
▁chart	-4317
compare	-4318
missing	-4319
▁shouldo	-4320
▁revision	-4321
▁getcallback	-4322
dence	-4323
▁annot	-4324
▁either	-4325
▁scheme	-4326
openforread	-4327
▁dot	-4328
tical	-4329
▁changes	-4330
collector	-4331
objectreference	-4332
ood	-4333
atable	-4334
indent	-4335
parcel	-4336
▁getproject	-4337
▁resultmatcher	-4338
asl	-4339
adient	-4340
cessary	-4341
pane	-4342
plus	-4343
vori	-4344
msisdn	-4345
▁appli	-4346
▁getap	-4347
complex	-4348
▁percent	-4349
▁specify	-4350
▁controller	-4351
▁getattributes	-4352
▁obj	-4353
ffset	-4354
shutdown	-4355
▁follows	-4356
▁constant	-4357
▁writeobject	-4358
>,	-4359
▁reg	-4360
party	-4361
xture	-4362
labels	-4363
kb	-4364
tx	-4365
kee	-4366
objec	-4367
lobject	-4368
▁routed	-4369
▁creator	-4370
▁removed	-4371
▁setfrom	-4372
contenttype	-4373
▁adderrormessage	-4374
▁them	-4375
closing	-4376
mappings	-4377
srequest	-4378
▁reverse	-4379
infomessage	-4380
fr	-4381
▁ren	-4382
ingbox	-4383
viation	-4384
▁notifi	-4385
▁setcre	-4386
attempts	-4387
runnable	-4388
▁encoded	-4389
requested	-4390
participant	-4391
▁setenabled	-4392
▁tick	-4393
finish	-4394
vorite	-4395
▁milli	-4396
▁scala	-4397
plugins	-4398
roadcast	-4399
▁allocate	-4400
mevent	-4401
gateway	-4402
payload	-4403
contacts	-4404
▁received	-4405
▁servletcontext	-4406
▁updateprogress	-4407
sl	-4408
dul	-4409
svn	-4410
peer	-4411
▁getph	-4412
▁lower	-4413
▁stats	-4414
turntype	-4415
▁logging	-4416
▁setauth	-4417
▁onmessage	-4418
▁separator	-4419
▁credentials	-4420
ists	-4421
retry	-4422
▁branch	-4423
▁future	-4424
▁sethref	-4425
▁getowner	-4426
▁processed	-4427
▁ir	-4428
sheet	-4429
resolve	-4430
orglabor	-4431
▁setpage	-4432
▁recordref	-4433
utab	-4434
istener	-4435
▁folder	-4436
▁relation	-4437
invocation	-4438
rules	-4439
▁setv	-4440
atched	-4441
sstats	-4442
strict	-4443
abilities	-4444
▁getblock	-4445
▁getcreate	-4446
piry	-4447
meetupsentry	-4448
<?>,	-4449
▁home	-4450
choice	-4451
▁accep	-4452
ndpoint	-4453
▁publish	-4454
layoutbranch	-4455
nonnullvalue	-4456
structureversion	-4457
days	-4458
lite	-4459
▁pending	-4460
hierarchy	-4461
maj	-4462
▁guid	-4463
accept	-4464
▁geted	-4465
declaration	-4466
▁gettemplate	-4467
ng	-4468
▁3	-4469
hoto	-4470
concurrent	-4471
mle	-4472
mpt	-4473
found	-4474
oader	-4475
optional	-4476
▁matcher	-4477
▁getactivity	-4478
dom	-4479
king	-4480
leep	-4481
▁uni	-4482
border	-4483
series	-4484
▁async	-4485
▁setco	-4486
▁notifies	-4487
credentials	-4488
▁getparameters	-4489
based	-4490
ratio	-4491
ctories	-4492
▁started	-4493
▁getvalues	-4494
▁newinstance	-4495
uth	-4496
audi	-4497
year	-4498
arche	-4499
▁inste	-4500
▁center	-4501
▁through	-4502
▁setsession	-4503
▁sslcontext	-4504
dr	-4505
▁4	-4506
▁adde	-4507
▁site	-4508
genabled	-4509
thandler	-4510
▁checksum	-4511
slist	-4512
▁complex	-4513
▁setitem	-4514
jirachange	-4515
▁getmodule	-4516
▁getsystem	-4517
▁rawheaders	-4518
too	-4519
ighb	-4520
amage	-4521
anager	-4522
▁correct	-4523
▁updates	-4524
▁incoming	-4525
▁composite	-4526
▁firstname	-4527
▁routedatabase	-4528
nul	-4529
▁ha	-4530
mployee	-4531
▁modify	-4532
ggestion	-4533
ldfilter	-4534
byprimarykey	-4535
ky	-4536
ian	-4537
urn	-4538
vers	-4539
▁span	-4540
itable	-4541
written	-4542
▁install	-4543
additional	-4544
socketfactory	-4545
▁ax	-4546
ving	-4547
gments	-4548
▁getref	-4549
▁getlocale	-4550
▁resourcebundle	-4551
isk	-4552
tre	-4553
▁ste	-4554
accep	-4555
clusive	-4556
▁errors	-4557
▁setint	-4558
quivalent	-4559
resultsetsize	-4560
▁bar	-4561
lator	-4562
▁force	-4563
▁getsc	-4564
▁usage	-4565
operations	-4566
▁jsonarray	-4567
▁represents	-4568
hook	-4569
umul	-4570
posed	-4571
▁core	-4572
▁setview	-4573
▁getfilter	-4574
▁bufferedimage	-4575
war	-4576
ffine	-4577
focus	-4578
▁html	-4579
include	-4580
▁conven	-4581
▁checked	-4582
▁selectitem	-4583
sd	-4584
clip	-4585
▁city	-4586
adaptor	-4587
▁dialog	-4588
▁getreal	-4589
▁getcommand	-4590
iding	-4591
▁alert	-4592
osition	-4593
▁advance	-4594
criterion	-4595
_3	-4596
ares	-4597
ceipt	-4598
dirty	-4599
strans	-4600
▁raisee	-4601
purchase	-4602
increment	-4603
onenumber	-4604
inf	-4605
▁im	-4606
program	-4607
uristic	-4608
valueof	-4609
▁getraw	-4610
▁getauto	-4611
▁rollback	-4612
▁getlanguage	-4613
▁box	-4614
▁pur	-4615
▁bund	-4616
▁chat	-4617
groupname	-4618
▁getfloat	-4619
▁getsearch	-4620
▁addinfomessage	-4621
▁why	-4622
strap	-4623
▁putall	-4624
policyrel	-4625
▁addproperty	-4626
▁anim	-4627
ecause	-4628
shards	-4629
construct	-4630
ncoperation	-4631
▁setaccount	-4632
▁getchildren	-4633
mx	-4634
dem	-4635
lat	-4636
lms	-4637
▁tls	-4638
▁every	-4639
▁lastname	-4640
textension	-4641
▁toxcontent	-4642
stin	-4643
merge	-4644
tables	-4645
fromstring	-4646
▁getfunction	-4647
pati	-4648
roles	-4649
texture	-4650
▁indent	-4651
ootstrap	-4652
▁createuser	-4653
▁mob	-4654
▁who	-4655
▁thus	-4656
▁your	-4657
rottle	-4658
▁assume	-4659
▁cleare	-4660
▁starts	-4661
▁section	-4662
▁texture	-4663
raproject	-4664
datastream	-4665
asy	-4666
suer	-4667
urls	-4668
pixel	-4669
since	-4670
vicel	-4671
cipher	-4672
engine	-4673
▁newitem	-4674
sensitive	-4675
▁whitebox	-4676
▁propertychange	-4677
▁times	-4678
▁bucket	-4679
policies	-4680
▁indexes	-4681
composite	-4682
wallentry	-4683
rer	-4684
round	-4685
▁osgi	-4686
latitude	-4687
vertical	-4688
▁getbyte	-4689
▁getentry	-4690
▁getlogin	-4691
▁principal	-4692
adio	-4693
bone	-4694
▁allows	-4695
▁secure	-4696
writable	-4697
▁contents	-4698
▁shopping	-4699
▁getoffset	-4700
▁getupdate	-4701
angingthreads	-4702
▁getnamespace	-4703
▁oc	-4704
emon	-4705
nation	-4706
viction	-4707
handlers	-4708
▁actuate	-4709
▁starting	-4710
▁typecode	-4711
▁getrevision	-4712
▁car	-4713
▁tmp	-4714
▁book	-4715
▁prote	-4716
▁rename	-4717
▁thrown	-4718
lifecycle	-4719
▁addchild	-4720
▁getbuild	-4721
▁populate	-4722
▁background	-4723
▁fore	-4724
nowledge	-4725
generated	-4726
▁absolute	-4727
dle	-4728
indows	-4729
▁quote	-4730
▁saved	-4731
echange	-4732
▁arcrole	-4733
▁diagnostic	-4734
▁getproduct	-4735
▁os	-4736
▁kind	-4737
presen	-4738
quires	-4739
▁filters	-4740
compatible	-4741
▁performance	-4742
break	-4743
▁lognode	-4744
primitive	-4745
publisher	-4746
▁platform	-4747
▁getfeature	-4748
▁bounds	-4749
▁strings	-4750
anization	-4751
singleton	-4752
▁conversion	-4753
ose	-4754
▁aws	-4755
▁via	-4756
olding	-4757
reenode	-4758
▁listen	-4759
▁stroke	-4760
sresponse	-4761
ingenabled	-4762
▁disconnect	-4763
managerfactory	-4764
▁asyncoperation	-4765
▁buil	-4766
▁phone	-4767
▁during	-4768
▁userid	-4769
delegate	-4770
teration	-4771
▁history	-4772
ationtime	-4773
▁primitive	-4774
bon	-4775
mac	-4776
jira	-4777
strac	-4778
▁points	-4779
ubyobject	-4780
▁filesystem	-4781
▁onnew	-4782
require	-4783
▁company	-4784
ientation	-4785
▁structure	-4786
dete	-4787
shake	-4788
stage	-4789
needed	-4790
viewer	-4791
correct	-4792
machine	-4793
omelement	-4794
▁irubyobject	-4795
tc	-4796
ux	-4797
▁getth	-4798
▁spring	-4799
▁seconds	-4800
valuetype	-4801
▁messagelog	-4802
vely	-4803
aging	-4804
▁chunk	-4805
▁circle	-4806
▁instead	-4807
▁framework	-4808
▁getsample	-4809
▁cachemodel	-4810
▁determines	-4811
udf	-4812
ipher	-4813
stants	-4814
mbedded	-4815
▁getcomment	-4816
ban	-4817
vec	-4818
rift	-4819
▁our	-4820
▁wtf	-4821
▁their	-4822
▁affine	-4823
ertificate	-4824
commandbutton	-4825
hes	-4826
▁ign	-4827
anode	-4828
▁bulk	-4829
▁addto	-4830
▁isloggable	-4831
availability	-4832
▁getmetadata	-4833
▁gra	-4834
▁mean	-4835
▁seto	-4836
cedure	-4837
tenant	-4838
setbranch	-4839
▁setaction	-4840
est	-4841
ula	-4842
duling	-4843
▁getno	-4844
▁chained	-4845
unmarshal	-4846
▁setstring	-4847
▁getcustomer	-4848
▁persistence	-4849
▁<	-4850
tou	-4851
beat	-4852
math	-4853
▁err	-4854
▁isd	-4855
▁emit	-4856
▁ascending	-4857
▁serializer	-4858
▁il	-4859
ocal	-4860
▁bus	-4861
marks	-4862
gether	-4863
normal	-4864
▁setsu	-4865
▁possible	-4866
environment	-4867
▁compression	-4868
propertiesset	-4869
▁setmvccversion	-4870
sf	-4871
uh	-4872
lib	-4873
uni	-4874
fired	-4875
stime	-4876
▁struct	-4877
filepath	-4878
▁conveni	-4879
▁setcode	-4880
▁synchron	-4881
▁getaccess	-4882
▁getmvccversion	-4883
▁redu	-4884
startdate	-4885
▁setcache	-4886
▁getactive	-4887
▁printstream	-4888
direc	-4889
▁regex	-4890
▁android	-4891
▁-1	-4892
tech	-4893
zoom	-4894
▁sur	-4895
errors	-4896
tokens	-4897
ummary	-4898
license	-4899
▁asserti	-4900
modification	-4901
▁cr	-4902
ones	-4903
oney	-4904
▁leg	-4905
modify	-4906
▁getqueue	-4907
▁getexternal	-4908
yc	-4909
hit	-4910
zel	-4911
into	-4912
▁exp	-4913
▁look	-4914
▁rate	-4915
totype	-4916
tplace	-4917
▁setclass	-4918
▁connected	-4919
abs	-4920
iso	-4921
acao	-4922
utils	-4923
padding	-4924
urrence	-4925
▁sethttp	-4926
▁together	-4927
▁getmimetype	-4928
mdm	-4929
▁lon	-4930
lated	-4931
scene	-4932
▁pref	-4933
fiable	-4934
checked	-4935
locator	-4936
▁describ	-4937
▁debugging	-4938
▁getrecord	-4939
constraints	-4940
23	-4941
than	-4942
aries	-4943
oning	-4944
▁because	-4945
▁convertto	-4946
fre	-4947
ied	-4948
ttl	-4949
▁arg	-4950
▁isc	-4951
▁sig	-4952
clone	-4953
deploy	-4954
between	-4955
tentries	-4956
delimiter	-4957
migration	-4958
▁defaults	-4959
assignment	-4960
▁getservicename	-4961
▁setmanagedbean	-4962
ggle	-4963
cover	-4964
▁most	-4965
lifetime	-4966
terminal	-4967
vertices	-4968
opensocial	-4969
▁comb	-4970
sensor	-4971
▁setdi	-4972
aliases	-4973
▁assign	-4974
▁getxml	-4975
dyconnection	-4976
enti	-4977
▁clock	-4978
metadat	-4979
accuracy	-4980
sessions	-4981
specific	-4982
▁getservlet	-4983
▁gethostname	-4984
resourceaction	-4985
hic	-4986
super	-4987
▁getle	-4988
▁setno	-4989
▁prints	-4990
▁setpri	-4991
▁getinfo	-4992
vas	-4993
▁src	-4994
vidence	-4995
▁blocks	-4996
channels	-4997
▁getnorm	-4998
percentage	-4999
01	-5000
td	-5001
vs	-5002
limpl	-5003
udlet	-5004
contrac	-5005
▁setout	-5006
▁entryaction	-5007
vp	-5008
pet	-5009
adex	-5010
▁price	-5011
decoder	-5012
▁closes	-5013
▁onpause	-5014
▁setorder	-5015
syncdevice	-5016
▁isrunning	-5017
▁getprotocol	-5018
▁sendmessage	-5019
▁addattribute	-5020
unnel	-5021
finder	-5022
▁needs	-5023
xpression	-5024
clock	-5025
▁once	-5026
geometry	-5027
▁ondestroy	-5028
marketplace	-5029
requesttype	-5030
▁subclasses	-5031
▁sol	-5032
▁getk	-5033
velope	-5034
▁scrip	-5035
▁parsed	-5036
transfer	-5037
▁getclas	-5038
rectangle	-5039
▁isclosed	-5040
blockingqueue	-5041
ono	-5042
iname	-5043
share	-5044
sical	-5045
▁ship	-5046
ticast	-5047
▁setjob	-5048
▁records	-5049
▁keystore	-5050
commandbuttonid	-5051
emdem	-5052
▁getip	-5053
▁inner	-5054
▁loaded	-5055
▁needed	-5056
hostname	-5057
▁asserts	-5058
▁assertno	-5059
▁getright	-5060
▁clearevents	-5061
like	-5062
▁hit	-5063
beans	-5064
favorite	-5065
onlytype	-5066
▁newarray	-5067
▁onresume	-5068
▁setrender	-5069
▁getinputstream	-5070
forward	-5071
▁isqueue	-5072
▁dispatch	-5073
▁doswitch	-5074
kaleoaction	-5075
▁deserialize	-5076
dlfileversion	-5077
▁setapplication	-5078
ocke	-5079
▁way	-5080
audit	-5081
positions	-5082
▁getmember	-5083
▁getdocument	-5084
phan	-5085
rore	-5086
veto	-5087
synce	-5088
ilation	-5089
▁transi	-5090
▁setcreate	-5091
▁setsample	-5092
▁settimeout	-5093
kehoachvesinh	-5094
xx	-5095
▁flow	-5096
▁veri	-5097
▁year	-5098
colors	-5099
effect	-5100
▁general	-5101
useridmapper	-5102
urlconnection	-5103
▁affinetransform	-5104
tl	-5105
udo	-5106
aler	-5107
loop	-5108
lision	-5109
▁criteri	-5110
▁missing	-5111
▁jj	-5112
xpan	-5113
backup	-5114
crypted	-5115
▁proces	-5116
▁setpay	-5117
▁defaultvalue	-5118
uses	-5119
▁isun	-5120
▁admin	-5121
▁cross	-5122
▁remap	-5123
▁xpath	-5124
facture	-5125
▁cipher	-5126
wninginstitution	-5127
ited	-5128
ssue	-5129
▁std	-5130
seudo	-5131
▁even	-5132
▁setap	-5133
ildcard	-5134
external	-5135
ufacture	-5136
▁outgoing	-5137
▁readonly	-5138
▁nativeget	-5139
publishdate	-5140
▁setcontext	-5141
▁isconnected	-5142
dap	-5143
bool	-5144
irth	-5145
lict	-5146
resul	-5147
▁mail	-5148
▁refers	-5149
▁resume	-5150
▁consume	-5151
▁getfull	-5152
▁returning	-5153
vl	-5154
att	-5155
grow	-5156
anism	-5157
ingex	-5158
▁tojson	-5159
▁reserved	-5160
assessment	-5161
▁processor	-5162
accesstoken	-5163
implementation	-5164
hoi	-5165
aching	-5166
motion	-5167
▁setinput	-5168
▁dependency	-5169
▁getpackage	-5170
▁sl	-5171
uffle	-5172
▁pagin	-5173
▁quali	-5174
▁parcel	-5175
ane	-5176
▁dig	-5177
pires	-5178
credit	-5179
urbone	-5180
▁least	-5181
▁these	-5182
accessor	-5183
▁getread	-5184
specified	-5185
▁setcheck	-5186
▁setlogin	-5187
updatedate	-5188
▁getbounds	-5189
▁setheader	-5190
webdavprops	-5191
▁implements	-5192
▁instruction	-5193
ral	-5194
ints	-5195
lest	-5196
alled	-5197
named	-5198
seque	-5199
▁users	-5200
▁getdis	-5201
▁nilreason	-5202
▁setfilter	-5203
directories	-5204
▁addlistener	-5205
▁statevector	-5206
ario	-5207
dirs	-5208
nuoc	-5209
adjust	-5210
▁ignored	-5211
▁program	-5212
▁completed	-5213
▁responseentity	-5214
cmon	-5215
ncry	-5216
▁tax	-5217
infos	-5218
▁angle	-5219
▁seton	-5220
eliteral	-5221
previous	-5222
▁payload	-5223
itemprice	-5224
▁remapuri	-5225
▁subtract	-5226
encryption	-5227
portletitem	-5228
requestverb	-5229
responseverb	-5230
span	-5231
▁worker	-5232
bandwidth	-5233
interfaces	-5234
▁secretkey	-5235
▁descriptor	-5236
▁getlogwriter	-5237
pm	-5238
▁bin	-5239
▁inc	-5240
ascri	-5241
cores	-5242
▁vari	-5243
retrie	-5244
sertion	-5245
▁observable	-5246
▁threadfactory	-5247
▁createresource	-5248
css	-5249
health	-5250
▁rating	-5251
▁onstart	-5252
scheduled	-5253
▁included	-5254
dependency	-5255
projection	-5256
▁allocation	-5257
▁convenience	-5258
▁setcustomer	-5259
▁geteffective	-5260
▁getfirstname	-5261
▁setproperties	-5262
mas	-5263
inue	-5264
▁tile	-5265
▁layer	-5266
artbeat	-5267
▁master	-5268
lexecutor	-5269
▁behavior	-5270
oauthtoken	-5271
▁setactuate	-5272
▁resourcetype	-5273
decor	-5274
▁area	-5275
▁depth	-5276
▁clause	-5277
▁wrapper	-5278
▁setserver	-5279
▁extensions	-5280
beandefinition	-5281
lice	-5282
never	-5283
tility	-5284
▁bundler	-5285
▁highlight	-5286
▁stopwatch	-5287
copyoperation	-5288
ys	-5289
ring	-5290
▁fre	-5291
datas	-5292
course	-5293
▁define	-5294
deventid	-5295
xtension	-5296
utablemap	-5297
▁timevalue	-5298
▁exitaction	-5299
stre	-5300
▁pdf	-5301
quiet	-5302
▁gran	-5303
▁click	-5304
▁collect	-5305
▁nextstate	-5306
▁getactuate	-5307
▁connections	-5308
▁setlogwriter	-5309
cf	-5310
▁ta	-5311
▁sax	-5312
arity	-5313
ndata	-5314
▁high	-5315
▁caller	-5316
▁classi	-5317
▁isauto	-5318
velocity	-5319
▁columns	-5320
▁tooltip	-5321
redirects	-5322
compressed	-5323
anon	-5324
room	-5325
ficon	-5326
answer	-5327
▁again	-5328
changes	-5329
▁setline	-5330
▁scheduler	-5331
ddmtemplate	-5332
▁getstarttime	-5333
▁writetoparcel	-5334
▁da	-5335
uncate	-5336
▁readd	-5337
recovery	-5338
▁ordered	-5339
▁logwriter	-5340
▁getarcrole	-5341
▁getlastname	-5342
▁pluginmanager	-5343
insn	-5344
boards	-5345
▁estim	-5346
▁getop	-5347
generic	-5348
tedicon	-5349
tevents	-5350
▁bitset	-5351
▁gettab	-5352
striction	-5353
▁invalidate	-5354
mat	-5355
rest	-5356
vile	-5357
aware	-5358
datum	-5359
▁mbean	-5360
▁respon	-5361
▁testadd	-5362
alignment	-5363
▁executed	-5364
transports	-5365
descriptors	-5366
interaction	-5367
▁setcomment	-5368
ines	-5369
manifest	-5370
▁student	-5371
▁visible	-5372
ictionary	-5373
lighttime	-5374
shoppingcart	-5375
adoc	-5376
meter	-5377
serial	-5378
▁getby	-5379
scanner	-5380
▁keyset	-5381
▁moveto	-5382
▁weight	-5383
▁problem	-5384
▁special	-5385
▁getsignature	-5386
ie	-5387
ams	-5388
eds	-5389
▁pu	-5390
amel	-5391
orth	-5392
when	-5393
riend	-5394
setup	-5395
pended	-5396
▁social	-5397
▁numeric	-5398
injection	-5399
▁getlevel	-5400
▁setarcrole	-5401
▁milliseconds	-5402
▁atomicboolean	-5403
▁getdestination	-5404
..	-5405
prep	-5406
▁ide	-5407
nanos	-5408
aficon	-5409
orderi	-5410
▁fatal	-5411
▁pause	-5412
▁spaces	-5413
standard	-5414
▁deletes	-5415
▁onreset	-5416
▁getstage	-5417
▁preferred	-5418
▁gettimeout	-5419
▁onnewintent	-5420
ansi	-5421
nate	-5422
aused	-5423
aving	-5424
comma	-5425
iling	-5426
using	-5427
ceeded	-5428
xpande	-5429
▁drawable	-5430
▁getbegin	-5431
▁instanti	-5432
urlloading	-5433
millisecond	-5434
xpandedicon	-5435
▁createlist	-5436
contractedicon	-5437
ire	-5438
▁ep	-5439
▁hm	-5440
ison	-5441
▁gps	-5442
▁ish	-5443
▁swap	-5444
ponent	-5445
▁getlin	-5446
▁scroll	-5447
▁runcycle	-5448
▁setstyle	-5449
▁setoptions	-5450
referencetype	-5451
▁nextstateindex	-5452
mid	-5453
flav	-5454
izer	-5455
jaxb	-5456
▁pet	-5457
ditem	-5458
umbna	-5459
▁ldap	-5460
streams	-5461
▁details	-5462
▁istatus	-5463
▁equality	-5464
▁setwidth	-5465
conversion	-5466
ourceloader	-5467
▁resourceadapter	-5468
ital	-5469
lots	-5470
plier	-5471
orized	-5472
▁normal	-5473
sturbone	-5474
▁forward	-5475
▁setcancel	-5476
▁representing	-5477
inh	-5478
uhh	-5479
ific	-5480
▁red	-5481
▁sen	-5482
▁choo	-5483
arrays	-5484
▁getsp	-5485
catalog	-5486
upplier	-5487
activate	-5488
capability	-5489
akismetdata	-5490
▁intersects	-5491
▁setduration	-5492
pes	-5493
▁gu	-5494
▁toin	-5495
ameteri	-5496
kiemdem	-5497
queries	-5498
▁getand	-5499
▁getlink	-5500
▁partial	-5501
mediatype	-5502
oauthconsumer	-5503
specification	-5504
kin	-5505
push	-5506
ateway	-5507
▁retur	-5508
▁upper	-5509
confirm	-5510
tlsmode	-5511
▁getclo	-5512
▁portal	-5513
▁getprefix	-5514
▁getregion	-5515
ando	-5516
▁und	-5517
split	-5518
signal	-5519
▁actor	-5520
▁getss	-5521
▁symbol	-5522
aresource	-5523
▁extended	-5524
▁setgroup	-5525
stacktrace	-5526
▁setlayout	-5527
▁getencoding	-5528
▁...	-5529
▁lat	-5530
▁openc	-5531
frompar	-5532
umbnail	-5533
existing	-5534
▁setowner	-5535
▁getoperation	-5536
turl	-5537
▁ful	-5538
▁lazy	-5539
ractor	-5540
▁groups	-5541
ordinator	-5542
▁activate	-5543
▁bytestring	-5544
▁gettransaction	-5545
yy	-5546
hat	-5547
▁fr	-5548
auge	-5549
free	-5550
▁mac	-5551
aclass	-5552
▁score	-5553
▁onoverride	-5554
▁setresponse	-5555
▁distribution	-5556
▁getnilreason	-5557
cut	-5558
dev	-5559
plain	-5560
sitem	-5561
▁help	-5562
▁issy	-5563
raming	-5564
▁would	-5565
▁deploy	-5566
▁isfinished	-5567
▁settimestamp	-5568
bid	-5569
▁es	-5570
cors	-5571
ocab	-5572
notes	-5573
▁self	-5574
updater	-5575
▁monitor	-5576
dp	-5577
hour	-5578
grees	-5579
mlink	-5580
reply	-5581
▁face	-5582
▁logs	-5583
agraph	-5584
enable	-5585
sender	-5586
▁launch	-5587
▁mapper	-5588
▁gettags	-5589
▁reasons	-5590
▁setread	-5591
▁threads	-5592
inventory	-5593
placement	-5594
▁getarray	-5595
▁prepared	-5596
▁setformat	-5597
▁paginating	-5598
▁getexception	-5599
▁afterunmarshal	-5600
stmt	-5601
▁mat	-5602
crete	-5603
stand	-5604
▁here	-5605
▁intern	-5606
generate	-5607
▁bytesto	-5608
▁getpart	-5609
▁setallow	-5610
ocalservice	-5611
▁getcountry	-5612
stringbuffer	-5613
▁stringbuffer	-5614
▁linkedhashmap	-5615
▁getclassnameid	-5616
▁sus	-5617
▁seta	-5618
icture	-5619
andview	-5620
journal	-5621
inmillis	-5622
▁attempt	-5623
tencoding	-5624
management	-5625
▁lifecycle	-5626
▁setnumber	-5627
▁toindented	-5628
▁messagetype	-5629
--	-5630
__	-5631
ado	-5632
sts	-5633
tie	-5634
▁cms	-5635
▁yet	-5636
▁attr	-5637
▁addres	-5638
▁endtime	-5639
▁setbase	-5640
planation	-5641
▁currency	-5642
1,	-5643
tence	-5644
urren	-5645
serror	-5646
▁gethash	-5647
▁marshal	-5648
ationtype	-5649
▁isdeleted	-5650
emailaddress	-5651
hu	-5652
gap	-5653
ually	-5654
raphic	-5655
stored	-5656
oftware	-5657
▁settag	-5658
checksum	-5659
dlobject	-5660
▁overrid	-5661
▁addvalue	-5662
▁discovery	-5663
▁getdomain	-5664
▁constraints	-5665
▁initialvalue	-5666
ost	-5667
orig	-5668
scap	-5669
▁bill	-5670
charac	-5671
decision	-5672
▁exclude	-5673
▁gettest	-5674
▁getscale	-5675
▁setdestination	-5676
tob	-5677
iodi	-5678
▁pan	-5679
atory	-5680
quare	-5681
▁occur	-5682
▁delivery	-5683
methodname	-5684
▁inventory	-5685
▁getstorage	-5686
▁setdocument	-5687
▁ve	-5688
acer	-5689
▁jar	-5690
sired	-5691
latest	-5692
▁cause	-5693
▁bottom	-5694
longitude	-5695
usergroup	-5696
▁modelnode	-5697
aylighttime	-5698
memoryinbytes	-5699
tau	-5700
inet	-5701
▁lex	-5702
gerror	-5703
maximum	-5704
microblog	-5705
▁fragment	-5706
▁mediatype	-5707
▁orientation	-5708
ot	-5709
>>>	-5710
uld	-5711
▁mu	-5712
▁ri	-5713
paid	-5714
▁cmd	-5715
alance	-5716
ampler	-5717
perand	-5718
▁deleg	-5719
connector	-5720
▁interpre	-5721
department	-5722
▁sortedset	-5723
02.	-5724
stor	-5725
wire	-5726
bling	-5727
▁hase	-5728
proper	-5729
▁setcount	-5730
▁horizontal	-5731
▁operations	-5732
▁readstring	-5733
▁setdatabase	-5734
▁modelandview	-5735
ato	-5736
tee	-5737
loor	-5738
poch	-5739
vacy	-5740
adoop	-5741
where	-5742
always	-5743
isable	-5744
▁while	-5745
attende	-5746
verbose	-5747
▁hsqlname	-5748
indexshard	-5749
▁coordinates	-5750
textensionlist	-5751
raso	-5752
▁isb	-5753
sence	-5754
▁clip	-5755
▁mask	-5756
▁isopen	-5757
precated	-5758
fromparcel	-5759
▁nexttoken	-5760
componentid	-5761
▁getresults	-5762
▁getextension	-5763
bt	-5764
▁vo	-5765
outer	-5766
neighb	-5767
sorted	-5768
▁https	-5769
▁terms	-5770
▁suffix	-5771
gerprint	-5772
▁automatic	-5773
▁classpath	-5774
▁getliteral	-5775
▁httpclient	-5776
▁immutablemap	-5777
▁authorization	-5778
gge	-5779
mag	-5780
chan	-5781
here	-5782
▁gui	-5783
quota	-5784
subnet	-5785
▁ticket	-5786
▁wrapped	-5787
streaming	-5788
▁isreadonly	-5789
conversation	-5790
minorversion	-5791
pluginsetting	-5792
ben	-5793
lide	-5794
lien	-5795
sper	-5796
▁sty	-5797
visor	-5798
binder	-5799
decode	-5800
▁getsql	-5801
▁setrow	-5802
bability	-5803
configur	-5804
▁archive	-5805
▁getstore	-5806
▁quantity	-5807
filesystem	-5808
▁contained	-5809
compression	-5810
▁externalcontext	-5811
tis	-5812
reak	-5813
▁jdk	-5814
▁less	-5815
anceled	-5816
▁getdoc	-5817
▁optimi	-5818
positive	-5819
▁preview	-5820
classpath	-5821
allocation	-5822
▁statechart	-5823
▁setfirstname	-5824
mise	-5825
▁leaf	-5826
robject	-5827
stopped	-5828
▁gettop	-5829
compound	-5830
heuristic	-5831
▁callable	-5832
▁setlocal	-5833
▁withname	-5834
facesstate	-5835
generation	-5836
▁activation	-5837
▁getentries	-5838
▁getavailable	-5839
▁setparameter	-5840
▁concurrentmap	-5841
▁containsvalue	-5842
fit	-5843
rive	-5844
tier	-5845
▁ast	-5846
appen	-5847
categ	-5848
▁cast	-5849
cloning	-5850
▁getlock	-5851
▁detached	-5852
▁getdelay	-5853
linecolumn	-5854
successful	-5855
▁unmarshal	-5856
▁setproject	-5857
▁successful	-5858
▁objectmapper	-5859
▁removelistener	-5860
▁writeattribute	-5861
wd	-5862
mes	-5863
cogn	-5864
lazy	-5865
▁blue	-5866
▁slot	-5867
▁jobid	-5868
accessi	-5869
waiting	-5870
▁getother	-5871
instanceid	-5872
▁setremote	-5873
▁getinitial	-5874
▁getprocess	-5875
▁setlastname	-5876
▁testcloning	-5877
pex	-5878
lemo	-5879
vered	-5880
andget	-5881
corder	-5882
levant	-5883
tailer	-5884
▁recur	-5885
▁syste	-5886
▁getuse	-5887
▁isshow	-5888
allocated	-5889
providers	-5890
modifiable	-5891
▁remaining	-5892
▁completion	-5893
▁components	-5894
servicecomponent	-5895
▁stagedmodeltype	-5896
bly	-5897
▁mut	-5898
▁tcp	-5899
popup	-5900
▁idle	-5901
ackets	-5902
cached	-5903
▁share	-5904
stogram	-5905
timezon	-5906
▁detect	-5907
▁getcall	-5908
▁updated	-5909
efficient	-5910
ufacturer	-5911
accessible	-5912
▁readfully	-5913
▁setsearch	-5914
▁terminate	-5915
▁dictionary	-5916
▁getpriority	-5917
▁httprequest	-5918
usertrackerpath	-5919
tos	-5920
vert	-5921
▁svg	-5922
▁axis	-5923
▁sock	-5924
example	-5925
▁bridge	-5926
▁except	-5927
▁mobile	-5928
▁resize	-5929
gradient	-5930
tracking	-5931
▁cssnode	-5932
ameterized	-5933
pot	-5934
ros	-5935
anew	-5936
hints	-5937
times	-5938
devices	-5939
graphic	-5940
▁setindex	-5941
poolexecutor	-5942
▁getoverride	-5943
▁getcollection	-5944
rgb	-5945
hots	-5946
deque	-5947
▁isch	-5948
inuous	-5949
▁could	-5950
▁setun	-5951
creation	-5952
▁embedded	-5953
▁requires	-5954
▁exceptions	-5955
▁setactivity	-5956
modifiedsince	-5957
▁removeproperty	-5958
goti	-5959
iter	-5960
stub	-5961
▁too	-5962
alist	-5963
ooper	-5964
▁typed	-5965
▁settab	-5966
▁indices	-5967
workspace	-5968
vailability	-5969
▁getprofile	-5970
▁invocation	-5971
browsertracker	-5972
▁cookiehandler	-5973
12	-5974
nam	-5975
same	-5976
<?>[]	-5977
agram	-5978
▁supp	-5979
tolive	-5980
tentity	-5981
▁appends	-5982
▁arrayof	-5983
▁eventtype	-5984
▁dispatcher	-5985
organization	-5986
atur	-5987
▁cost	-5988
▁xhtml	-5989
▁editor	-5990
▁getday	-5991
▁compile	-5992
▁recycle	-5993
coordinate	-5994
subscriber	-5995
▁getpolicy	-5996
▁setactive	-5997
▁setheight	-5998
▁attachment	-5999
▁responsecache	-6000
ev	-6001
wt	-6002
tty	-6003
cause	-6004
hicle	-6005
recur	-6006
▁setph	-6007
ternative	-6008
▁getsubject	-6009
▁settransaction	-6010
ird	-6011
rase	-6012
swer	-6013
▁myb	-6014
▁dono	-6015
▁were	-6016
ocation	-6017
▁linear	-6018
▁catalog	-6019
▁readraw	-6020
▁objectid	-6021
dimensions	-6022
▁callbacks	-6023
▁comparable	-6024
lists	-6025
ymous	-6026
stinct	-6027
android	-6028
reftype	-6029
executor	-6030
authority	-6031
▁getcustom	-6032
sregistration	-6033
beh	-6034
rance	-6035
within	-6036
ysical	-6037
▁strip	-6038
ticular	-6039
failures	-6040
filespec	-6041
▁encrypt	-6042
▁getbean	-6043
▁getsort	-6044
▁getbundle	-6045
favoritesite	-6046
edad	-6047
▁conn	-6048
▁side	-6049
ascript	-6050
▁readint	-6051
▁setsync	-6052
▁truncate	-6053
horizontal	-6054
lapsedtime	-6055
▁ipaddress	-6056
▁variables	-6057
▁getheaders	-6058
resourcetype	-6059
sof	-6060
▁age	-6061
evalu	-6062
▁seticon	-6063
▁testremove	-6064
▁entersequence	-6065
ppr	-6066
▁own	-6067
ancer	-6068
coord	-6069
fromp	-6070
plica	-6071
posal	-6072
sting	-6073
lerror	-6074
▁getsi	-6075
▁stext	-6076
▁credit	-6077
▁average	-6078
▁pointer	-6079
dra	-6080
mbo	-6081
scl	-6082
outcome	-6083
keystore	-6084
▁graphics	-6085
▁necessary	-6086
coun	-6087
poned	-6088
spark	-6089
▁poll	-6090
▁fired	-6091
▁getmo	-6092
▁known	-6093
▁clears	-6094
▁getcap	-6095
▁repeat	-6096
▁setdis	-6097
commands	-6098
rollment	-6099
▁portlet	-6100
scriptive	-6101
▁supplier	-6102
▁threshold	-6103
▁getinteger	-6104
▁particular	-6105
▁exitsequence	-6106
▁lastmodified	-6107
zi	-6108
ely	-6109
help	-6110
istr	-6111
stemp	-6112
▁isuse	-6113
sclient	-6114
weather	-6115
business	-6116
▁setbody	-6117
▁creating	-6118
▁withstatus	-6119
gt	-6120
bet	-6121
pin	-6122
sur	-6123
nodeid	-6124
online	-6125
radius	-6126
rapper	-6127
▁getmy	-6128
primary	-6129
filerank	-6130
outgoing	-6131
▁bytesize	-6132
▁transfer	-6133
▁getrandom	-6134
▁fromstring	-6135
▁decimalformat	-6136
▁writetoconsole	-6137
jo	-6138
▁how	-6139
wards	-6140
▁isis	-6141
keeper	-6142
ocument	-6143
▁opencv	-6144
▁getcity	-6145
datapoint	-6146
updateuser	-6147
▁according	-6148
▁setlocale	-6149
initializer	-6150
intersection	-6151
▁getdefaultvalue	-6152
drop	-6153
▁bel	-6154
xanew	-6155
counts	-6156
figure	-6157
licked	-6158
▁fully	-6159
▁series	-6160
▁writable	-6161
▁assertion	-6162
▁cacheresult	-6163
▁authenticator	-6164
▁getscinterface	-6165
▁setclassnameid	-6166
▁scinterfaceimpl	-6167
fx	-6168
gu	-6169
rpc	-6170
xit	-6171
▁ami	-6172
aring	-6173
stock	-6174
▁drag	-6175
▁shift	-6176
▁stops	-6177
fidence	-6178
▁onstop	-6179
modelimpl	-6180
▁feedback	-6181
▁mcontext	-6182
compressor	-6183
credential	-6184
systemevent	-6185
pid	-6186
two	-6187
jdbc	-6188
▁isf	-6189
speed	-6190
pentry	-6191
▁legacy	-6192
▁toggle	-6193
▁getroute	-6194
▁receiver	-6195
keyhashmap	-6196
▁bytearray	-6197
▁isvisible	-6198
▁equivalent	-6199
▁getdatasource	-6200
▁auditcriterion	-6201
▁pk	-6202
▁sasl	-6203
atraso	-6204
degree	-6205
quietly	-6206
▁getapp	-6207
ewrapper	-6208
pipeline	-6209
▁getused	-6210
processed	-6211
timezonelist	-6212
▁getstartdate	-6213
gvt	-6214
quip	-6215
▁cho	-6216
gauge	-6217
models	-6218
adwords	-6219
readable	-6220
▁increase	-6221
ramingrect	-6222
coordinates	-6223
▁sysproperty	-6224
▁pr	-6225
dump	-6226
▁len	-6227
basic	-6228
ingle	-6229
simpl	-6230
▁many	-6231
▁means	-6232
▁pixel	-6233
barcode	-6234
▁effects	-6235
▁greater	-6236
aggregate	-6237
▁setshort	-6238
▁getmaximum	-6239
ves	-6240
tice	-6241
zard	-6242
ators	-6243
hentry	-6244
mitted	-6245
typeid	-6246
riction	-6247
▁loader	-6248
▁retain	-6249
coverage	-6250
▁getcircle	-6251
▁setcircle	-6252
interceptors	-6253
▁httpsession	-6254
clr	-6255
ntax	-6256
rink	-6257
ktype	-6258
texth	-6259
▁getdb	-6260
▁jniget	-6261
andidate	-6262
detector	-6263
syncevent	-6264
▁comments	-6265
▁settrans	-6266
▁stringto	-6267
▁preference	-6268
▁statistics	-6269
ece	-6270
▁tx	-6271
does	-6272
rupt	-6273
ayout	-6274
lipse	-6275
tests	-6276
identi	-6277
isting	-6278
mapped	-6279
▁never	-6280
ordered	-6281
vportal	-6282
qualified	-6283
▁compiled	-6284
▁directly	-6285
▁setquery	-6286
mparameter	-6287
▁isdefault	-6288
rec	-6289
spi	-6290
▁pad	-6291
lished	-6292
▁comma	-6293
▁union	-6294
▁course	-6295
▁isstate	-6296
resourceapi	-6297
▁dl	-6298
basep	-6299
gradle	-6300
pology	-6301
▁setas	-6302
numbers	-6303
▁getjsf	-6304
▁parsep	-6305
sentries	-6306
▁getunit	-6307
▁utility	-6308
itemfield	-6309
▁negative	-6310
scheduling	-6311
▁getorigin	-6312
▁getscreen	-6313
▁setresult	-6314
▁startdate	-6315
▁elapsedtime	-6316
▁registration	-6317
▁setcontenttype	-6318
kit	-6319
prox	-6320
▁crc	-6321
▁maj	-6322
▁weak	-6323
echild	-6324
flight	-6325
▁phase	-6326
central	-6327
ookeeper	-6328
plicitly	-6329
versions	-6330
▁getjava	-6331
insession	-6332
jirachangegroup	-6333
gray	-6334
glyph	-6335
clause	-6336
intern	-6337
achable	-6338
limiter	-6339
menuitem	-6340
▁setargs	-6341
▁getjsfel	-6342
verification	-6343
▁setcallback	-6344
▁okauthenticator	-6345
dot	-6346
pto	-6347
ummy	-6348
▁dra	-6349
▁occ	-6350
mport	-6351
visit	-6352
tories	-6353
backoff	-6354
hashset	-6355
lerance	-6356
▁findby	-6357
boundary	-6358
▁literal	-6359
▁mybatis	-6360
▁valueof	-6361
▁provides	-6362
▁setdelay	-6363
▁timeunit	-6364
▁authenticate	-6365
aved	-6366
olid	-6367
▁hass	-6368
▁setth	-6369
▁defaul	-6370
visioner	-6371
▁getpost	-6372
▁indexed	-6373
▁material	-6374
3.	-6375
lli	-6376
▁mb	-6377
utes	-6378
▁fam	-6379
astic	-6380
notex	-6381
▁hide	-6382
ported	-6383
conciler	-6384
▁written	-6385
paragraph	-6386
▁donothing	-6387
▁ear	-6388
▁ids	-6389
▁uid	-6390
ckets	-6391
extra	-6392
former	-6393
timage	-6394
▁takes	-6395
matches	-6396
▁backup	-6397
▁putint	-6398
attached	-6399
▁regular	-6400
▁communic	-6401
truststore	-6402
ighlighting	-6403
▁getprogress	-6404
▁getworkflow	-6405
▁documentation	-6406
ca	-6407
vid	-6408
▁mix	-6409
▁vis	-6410
▁mmax	-6411
quoted	-6412
router	-6413
erature	-6414
▁answer	-6415
launcher	-6416
listwith	-6417
▁setbean	-6418
keepalive	-6419
▁failures	-6420
▁getstack	-6421
categories	-6422
restriction	-6423
descriptions	-6424
▁ioexception	-6425
▁setlanguage	-6426
▁--	-6427
ncer	-6428
vere	-6429
ablem	-6430
centi	-6431
latch	-6432
▁getz	-6433
negoti	-6434
▁myhost	-6435
▁cancelop	-6436
▁whenever	-6437
persistent	-6438
▁amiactive	-6439
▁setthread	-6440
jiraproject	-6441
▁bytesizevalue	-6442
▁canceloperation	-6443
aff	-6444
▁wal	-6445
cluding	-6446
subtype	-6447
▁divide	-6448
▁unsafe	-6449
▁getmode	-6450
orderitem	-6451
bugenabled	-6452
textobject	-6453
streamreader	-6454
scriptivename	-6455
configurations	-6456
▁getrepository	-6457
▁bufferedreader	-6458
▁spdyconnection	-6459
gay	-6460
exit	-6461
ibli	-6462
▁paste	-6463
▁reply	-6464
▁oncall	-6465
useruuid	-6466
▁getopen	-6467
valuepair	-6468
▁getrange	-6469
▁getscope	-6470
▁setlevel	-6471
progresslabel	-6472
nchronousworker	-6473
▁audi	-6474
ashmap	-6475
▁choose	-6476
nullable	-6477
▁eobject	-6478
▁weather	-6479
configured	-6480
▁resetnext	-6481
▁setdevice	-6482
▁setfilename	-6483
▁sessionbuilder	-6484
▁removeattribute	-6485
pp	-6486
don	-6487
ough	-6488
▁what	-6489
▁getbl	-6490
▁arrays	-6491
▁parses	-6492
analyzer	-6493
ecutable	-6494
strument	-6495
locations	-6496
▁createge	-6497
▁expanded	-6498
▁getprice	-6499
▁serialized	-6500
▁getselection	-6501
mutabletreenode	-6502
comb	-6503
fire	-6504
append	-6505
export	-6506
▁loads	-6507
▁money	-6508
▁uuidref	-6509
attemptid	-6510
protected	-6511
▁getenddate	-6512
alf	-6513
ene	-6514
buff	-6515
sumed	-6516
actual	-6517
manual	-6518
strain	-6519
▁vtype	-6520
committed	-6521
▁disabled	-6522
▁iproject	-6523
▁setentity	-6524
▁setproduct	-6525
▁gettimezone	-6526
ecutorservice	-6527
scr	-6528
sha	-6529
cing	-6530
rier	-6531
▁sip	-6532
facts	-6533
patial	-6534
▁addex	-6535
rovider	-6536
▁recent	-6537
▁refres	-6538
▁pvector	-6539
cancelled	-6540
throwable	-6541
▁broadcast	-6542
▁getscheme	-6543
▁setvolume	-6544
socialactivity	-6545
passwordtracker	-6546
▁messageconsole	-6547
ano	-6548
lng	-6549
mvc	-6550
▁ea	-6551
offer	-6552
▁getch	-6553
bernate	-6554
closure	-6555
clusion	-6556
orlimit	-6557
▁testge	-6558
drawable	-6559
▁combine	-6560
▁createc	-6561
▁plugins	-6562
lemessage	-6563
▁istransi	-6564
clientcert	-6565
▁specifies	-6566
transformer	-6567
▁getclasspk	-6568
▁getpayload	-6569
▁setclasspk	-6570
▁isstateactive	-6571
usc	-6572
mock	-6573
umen	-6574
apply	-6575
▁setle	-6576
▁setnum	-6577
▁unlock	-6578
▁setcity	-6579
▁clearall	-6580
▁compares	-6581
▁settable	-6582
▁getlogger	-6583
▁setaccess	-6584
▁httpresponse	-6585
▁setreference	-6586
clientrequestid	-6587
mgr	-6588
otp	-6589
isol	-6590
mean	-6591
secs	-6592
ttle	-6593
▁jnd	-6594
setid	-6595
andset	-6596
▁codec	-6597
▁might	-6598
sources	-6599
▁generates	-6600
httprequest	-6601
▁getvariable	-6602
▁typeliteral	-6603
ssh	-6604
outh	-6605
upon	-6606
stest	-6607
▁plus	-6608
ascade	-6609
compar	-6610
signer	-6611
spaces	-6612
▁locate	-6613
▁mapped	-6614
▁observer	-6615
▁rotation	-6616
statuscode	-6617
▁getmarker	-6618
termination	-6619
▁returndata	-6620
milliseconds	-6621
▁boundingbox	-6622
▁permissions	-6623
▁sethighligh	-6624
▁settemplate	-6625
notifications	-6626
▁setdisplayname	-6627
ug	-6628
best	-6629
uman	-6630
iodic	-6631
isplay	-6632
▁chars	-6633
▁datap	-6634
chanism	-6635
execute	-6636
lemodel	-6637
▁getsys	-6638
▁shuffle	-6639
actiontype	-6640
ossturbone	-6641
serialized	-6642
syncdlobject	-6643
▁eventlistener	-6644
▁onconfiguration	-6645
pies	-6646
agree	-6647
moved	-6648
▁hive	-6649
▁isno	-6650
stable	-6651
▁minim	-6652
▁queued	-6653
▁adapter	-6654
▁gettemp	-6655
▁restart	-6656
▁setlink	-6657
▁getfolder	-6658
▁rendering	-6659
▁generation	-6660
listwithauto	-6661
constructflag	-6662
▁createdefault	-6663
bag	-6664
ports	-6665
▁func	-6666
▁spec	-6667
▁border	-6668
▁reload	-6669
▁unwrap	-6670
▁writed	-6671
▁getplugin	-6672
▁getvolume	-6673
▁iteration	-6674
manufacturer	-6675
▁setoperation	-6676
▁getmanagedbean	-6677
dest	-6678
dget	-6679
ffic	-6680
trip	-6681
sonly	-6682
letest	-6683
senger	-6684
▁setip	-6685
▁tasks	-6686
through	-6687
separated	-6688
▁setalign	-6689
▁setupdate	-6690
displayname	-6691
▁participant	-6692
kaleodefinition	-6693
aske	-6694
▁cst	-6695
▁des	-6696
oring	-6697
▁hast	-6698
sclass	-6699
▁family	-6700
▁getapi	-6701
▁getper	-6702
▁sender	-6703
statistic	-6704
▁decision	-6705
columnname	-6706
conditions	-6707
▁setcustom	-6708
▁getminimum	-6709
relationship	-6710
▁closequietly	-6711
>[]	-6712
▁ns	-6713
lier	-6714
annot	-6715
sures	-6716
linear	-6717
▁setmy	-6718
mplugin	-6719
graphics	-6720
presented	-6721
▁getalign	-6722
▁getmulti	-6723
▁readchar	-6724
▁setdomain	-6725
▁setsystem	-6726
idx	-6727
mpp	-6728
silon	-6729
▁loop	-6730
sively	-6731
▁exact	-6732
encoder	-6733
ternate	-6734
▁getrun	-6735
▁setbit	-6736
httpauth	-6737
typeinfo	-6738
delements	-6739
tomessage	-6740
▁getmonth	-6741
attributed	-6742
▁gettoolbox	-6743
▁setcountry	-6744
parametervalue	-6745
▁shouldoverride	-6746
cols	-6747
decl	-6748
ders	-6749
feder	-6750
herit	-6751
stores	-6752
▁holder	-6753
dependent	-6754
▁counters	-6755
▁setvalid	-6756
▁formatter	-6757
▁getbinary	-6758
▁bytevector	-6759
▁getcluster	-6760
formatstring	-6761
▁getdistance	-6762
svnrepository	-6763
▁descriptions	-6764
vy	-6765
dfs	-6766
lemen	-6767
locks	-6768
major	-6769
▁getu	-6770
thrift	-6771
▁ready	-6772
overlay	-6773
bindings	-6774
fieldtype	-6775
▁getitems	-6776
▁setvisible	-6777
▁setcancelop	-6778
httpauthrequest	-6779
sim	-6780
▁kb	-6781
quad	-6782
▁csv	-6783
▁div	-6784
phrase	-6785
▁clazz	-6786
▁glyph	-6787
listing	-6788
▁logged	-6789
patterns	-6790
▁curveto	-6791
▁getconf	-6792
▁overlap	-6793
▁interpol	-6794
modifiedby	-6795
▁setmarker	-6796
▁temporary	-6797
replication	-6798
▁showfeedback	-6799
ched	-6800
nano	-6801
wsrp	-6802
▁dst	-6803
photo	-6804
utter	-6805
▁made	-6806
endian	-6807
cussion	-6808
minutes	-6809
xecutor	-6810
▁seturi	-6811
counters	-6812
resolved	-6813
▁isallow	-6814
secondary	-6815
▁eviction	-6816
▁getframe	-6817
▁getdeclared	-6818
pd	-6819
tte	-6820
gran	-6821
simp	-6822
voke	-6823
▁ack	-6824
green	-6825
▁simul	-6826
▁enqueue	-6827
pluginuri	-6828
protocols	-6829
dlfilerank	-6830
▁getoption	-6831
▁subscriber	-6832
▁beanfactory	-6833
▁interceptor	-6834
▁topluginuri	-6835
▁automatically	-6836
▁entitymanager	-6837
▁rendermanager	-6838
occ	-6839
blue	-6840
dend	-6841
chant	-6842
pdate	-6843
▁kill	-6844
▁vend	-6845
ocabul	-6846
▁lines	-6847
▁makes	-6848
advance	-6849
general	-6850
▁isinfo	-6851
▁withid	-6852
▁getflag	-6853
▁setfill	-6854
functions	-6855
mproperty	-6856
procedure	-6857
▁algorith	-6858
▁services	-6859
▁withnext	-6860
mpluginuri	-6861
▁decrement	-6862
▁compressed	-6863
▁getpercent	-6864
▁overridden	-6865
▁parcelable	-6866
instancestate	-6867
▁setstartdate	-6868
▁getidentifier	-6869
▁setpluginhost	-6870
▁resourceadaptor	-6871
24	-6872
high	-6873
ooth	-6874
uest	-6875
cture	-6876
events	-6877
should	-6878
alentry	-6879
cleanup	-6880
▁printf	-6881
toptions	-6882
▁maxsize	-6883
remaining	-6884
▁mockhttp	-6885
▁getamount	-6886
▁declaration	-6887
▁represented	-6888
▁getpartition	-6889
ixel	-6890
▁fix	-6891
▁ubl	-6892
allel	-6893
learn	-6894
moder	-6895
broker	-6896
▁getso	-6897
▁simil	-6898
indexed	-6899
accepted	-6900
checkout	-6901
▁consist	-6902
▁getmean	-6903
▁getsync	-6904
▁blocking	-6905
ignorecase	-6906
▁described	-6907
▁getscript	-6908
▁frompluginuri	-6909
▁atomicreference	-6910
je	-6911
air	-6912
asis	-6913
gzip	-6914
imit	-6915
jobs	-6916
skip	-6917
tics	-6918
vien	-6919
posit	-6920
▁setal	-6921
gesture	-6922
▁getcost	-6923
sexception	-6924
▁getchange	-6925
▁localdate	-6926
▁setconfig	-6927
▁getaverage	-6928
▁getprimary	-6929
▁setinitial	-6930
▁subsubcategory	-6931
llij	-6932
poly	-6933
remo	-6934
repo	-6935
renew	-6936
strow	-6937
voice	-6938
▁cors	-6939
▁flip	-6940
versal	-6941
veloper	-6942
▁additem	-6943
▁decrypt	-6944
▁enddate	-6945
▁getstar	-6946
▁loading	-6947
jiraaction	-6948
▁getsecret	-6949
▁isexpired	-6950
classification	-6951
▁setparameters	-6952
ceed	-6953
lour	-6954
▁gen	-6955
▁nul	-6956
compe	-6957
▁oper	-6958
▁rank	-6959
ewidth	-6960
transi	-6961
vectors	-6962
▁design	-6963
▁sethas	-6964
▁getleft	-6965
▁illegal	-6966
▁getcenter	-6967
▁getpublic	-6968
attributetype	-6969
▁clearservice	-6970
▁testhashcode	-6971
wee	-6972
fice	-6973
ighe	-6974
▁mou	-6975
atter	-6976
tivec	-6977
usenum	-6978
ithread	-6979
▁curren	-6980
▁getsite	-6981
▁converter	-6982
▁getfamily	-6983
▁precision	-6984
▁threadpool	-6985
timezonename	-6986
▁serversocket	-6987
▁cosdictionary	-6988
acc	-6989
pear	-6990
pire	-6991
allen	-6992
eligi	-6993
flush	-6994
until	-6995
▁repe	-6996
▁setu	-6997
▁turn	-6998
corner	-6999
▁decor	-7000
▁getpo	-7001
▁rules	-7002
▁getany	-7003
▁getnon	-7004
▁isorig	-7005
communic	-7006
immutable	-7007
bucketname	-7008
kaleotimer	-7009
▁getsocket	-7010
installment	-7011
▁expiration	-7012
▁webdavprops	-7013
▁createcontent	-7014
▁isdebugenabled	-7015
▁sessionfactory	-7016
networkinterface	-7017
fee	-7018
edit	-7019
▁jsp	-7020
▁setig	-7021
▁daemon	-7022
▁isnull	-7023
▁sparse	-7024
reserved	-7025
▁registers	-7026
inetaddress	-7027
stoperation	-7028
grp	-7029
han	-7030
proc	-7031
▁del	-7032
▁heap	-7033
quared	-7034
signup	-7035
▁still	-7036
datamap	-7037
rottled	-7038
▁getcur	-7039
▁compiler	-7040
▁modifier	-7041
childpaste	-7042
▁getrender	-7043
▁calculates	-7044
▁getchannel	-7045
▁setuuidref	-7046
▁getdownload	-7047
cim	-7048
roo	-7049
bench	-7050
later	-7051
licit	-7052
▁zoom	-7053
ounded	-7054
abstrac	-7055
latency	-7056
partial	-7057
upgrade	-7058
▁shadow	-7059
ographic	-7060
supplier	-7061
▁putlong	-7062
▁estimate	-7063
▁includes	-7064
▁issecure	-7065
▁addheader	-7066
▁getreport	-7067
▁getuuidref	-7068
▁objectname	-7069
requestbuilder	-7070
▁getencryption	-7071
microblogsentry	-7072
deventattributes	-7073
▁1.	-7074
▁ji	-7075
▁pt	-7076
▁did	-7077
▁jvm	-7078
parts	-7079
tives	-7080
▁cert	-7081
▁late	-7082
▁seed	-7083
milest	-7084
▁plain	-7085
bedpane	-7086
▁clearou	-7087
▁confirm	-7088
constants	-7089
propertie	-7090
publickey	-7091
▁fileaccess	-7092
▁getoriginal	-7093
▁transformer	-7094
▁intersection	-7095
▁clearoutevents	-7096
ino	-7097
lds	-7098
ove	-7099
ront	-7100
alise	-7101
alette	-7102
parsed	-7103
▁black	-7104
▁camel	-7105
▁finds	-7106
clickto	-7107
groupro	-7108
numeric	-7109
privile	-7110
scaling	-7111
zelcast	-7112
▁stores	-7113
intellij	-7114
methodtype	-7115
▁readdouble	-7116
▁setresults	-7117
bridgeaccess	-7118
propertytype	-7119
▁nameaddress	-7120
▁getbackground	-7121
▁ensurecapacity	-7122
4_	-7123
ells	-7124
past	-7125
▁now	-7126
https	-7127
penex	-7128
▁dete	-7129
▁grad	-7130
▁impl	-7131
charis	-7132
▁abort	-7133
▁power	-7134
tention	-7135
▁gettax	-7136
ancestor	-7137
▁getjson	-7138
▁assigned	-7139
▁createnew	-7140
▁experiment	-7141
amb	-7142
arr	-7143
gui	-7144
▁ca	-7145
mend	-7146
pare	-7147
trim	-7148
press	-7149
▁grow	-7150
flavor	-7151
newway	-7152
▁recom	-7153
▁isuser	-7154
▁adduser	-7155
idingmenu	-7156
ipaddress	-7157
▁endarray	-7158
messagelog	-7159
▁handshake	-7160
coordinator	-7161
▁getendpoint	-7162
transformation	-7163
▁getannotation	-7164
ja	-7165
▁rgb	-7166
sthan	-7167
vince	-7168
▁minus	-7169
capture	-7170
checker	-7171
formula	-7172
possible	-7173
uniqueid	-7174
▁applied	-7175
ternalurl	-7176
▁declared	-7177
▁getbutton	-7178
▁getreturn	-7179
▁publickey	-7180
clustergroup	-7181
sqlexception	-7182
stringbuilder	-7183
▁setsignature	-7184
▁shouldopenex	-7185
due	-7186
▁ds	-7187
▁mic	-7188
logic	-7189
mento	-7190
utori	-7191
ggered	-7192
angular	-7193
degrees	-7194
▁signal	-7195
levation	-7196
▁gateway	-7197
▁machine	-7198
▁setwrite	-7199
▁getfields	-7200
▁setlength	-7201
▁getregistr	-7202
▁prevcharis	-7203
▁startindex	-7204
▁statuscode	-7205
▁dependencies	-7206
▁getpersistence	-7207
bot	-7208
adget	-7209
claim	-7210
sizes	-7211
▁units	-7212
▁depend	-7213
▁ignite	-7214
▁itself	-7215
cloneable	-7216
signation	-7217
▁exchange	-7218
▁istruncated	-7219
▁getcontainer	-7220
cw	-7221
acted	-7222
depend	-7223
▁ascii	-7224
▁clamp	-7225
▁leave	-7226
▁seted	-7227
customi	-7228
indices	-7229
modules	-7230
sequent	-7231
startup	-7232
▁signed	-7233
conflict	-7234
quipment	-7235
▁waiting	-7236
instancel	-7237
▁question	-7238
timemillis	-7239
▁createxml	-7240
▁nestedset	-7241
▁setenable	-7242
▁gettrigger	-7243
▁setnumberof	-7244
streamhandler	-7245
▁gethttpsession	-7246
views	-7247
▁rese	-7248
ofweek	-7249
cookies	-7250
kentype	-7251
sibling	-7252
utation	-7253
▁damage	-7254
▁gettra	-7255
▁javafx	-7256
▁simply	-7257
typeenum	-7258
▁setbyte	-7259
▁setcost	-7260
▁getpoint	-7261
▁createtime	-7262
▁getbinding	-7263
▁setenddate	-7264
▁assertcontain	-7265
2,	-7266
bw	-7267
cmp	-7268
lore	-7269
▁bid	-7270
plied	-7271
denied	-7272
valued	-7273
changer	-7274
torigin	-7275
prepared	-7276
severity	-7277
▁compati	-7278
▁removec	-7279
▁readlong	-7280
svnrevision	-7281
ratingsstats	-7282
▁instantiate	-7283
▁tobytearray	-7284
▁deserializer	-7285
▁getcharacter	-7286
▁setbackground	-7287
oss	-7288
req	-7289
▁ur	-7290
▁sha	-7291
faile	-7292
mbean	-7293
assert	-7294
decess	-7295
lentry	-7296
riendly	-7297
injector	-7298
▁setcall	-7299
▁setfull	-7300
forresult	-7301
▁getoauth	-7302
▁settoken	-7303
statements	-7304
▁createadd	-7305
capabilities	-7306
▁getrealpath	-7307
ales	-7308
docs	-7309
▁rpc	-7310
▁usu	-7311
sfrom	-7312
▁wire	-7313
tified	-7314
▁break	-7315
▁light	-7316
fromuri	-7317
▁issync	-7318
▁readex	-7319
▁setapi	-7320
interrup	-7321
searcher	-7322
▁getbool	-7323
kudetails	-7324
subscribe	-7325
▁bootstrap	-7326
▁formatting	-7327
▁getconnect	-7328
▁getcontrol	-7329
▁sendplugin	-7330
▁databalance	-7331
▁getsecurity	-7332
▁numberformat	-7333
nit	-7334
siz	-7335
sty	-7336
▁cry	-7337
▁cts	-7338
alect	-7339
blank	-7340
poses	-7341
stric	-7342
cating	-7343
already	-7344
▁combin	-7345
▁isleaf	-7346
▁setapp	-7347
stroking	-7348
▁asserth	-7349
▁timezon	-7350
▁creation	-7351
▁gettopic	-7352
▁subsequent	-7353
▁visibility	-7354
▁association	-7355
▁getcomments	-7356
▁readresolve	-7357
▁availability	-7358
connecttimeout	-7359
mto	-7360
combin	-7361
▁thing	-7362
fixture	-7363
signing	-7364
▁applies	-7365
servation	-7366
categoryid	-7367
▁getcookie	-7368
▁setamount	-7369
▁callbackid	-7370
▁evaluation	-7371
▁getquantity	-7372
▁replication	-7373
▁getcallbackid	-7374
▁changingthreads	-7375
sel	-7376
wap	-7377
▁br	-7378
ches	-7379
weak	-7380
▁jms	-7381
▁sdf	-7382
strip	-7383
▁calc	-7384
ranges	-7385
tofile	-7386
density	-7387
inality	-7388
tobytes	-7389
▁vendor	-7390
segments	-7391
uithread	-7392
withnull	-7393
▁ensures	-7394
▁istrace	-7395
▁settask	-7396
▁shardid	-7397
▁treemap	-7398
▁addfilter	-7399
▁getunique	-7400
dependencies	-7401
▁setencoding	-7402
initialization	-7403
rea	-7404
ency	-7405
stag	-7406
formp	-7407
▁pack	-7408
▁peer	-7409
▁runs	-7410
allery	-7411
called	-7412
crease	-7413
▁panel	-7414
▁setad	-7415
▁sgraph	-7416
▁fixture	-7417
▁getmain	-7418
▁getship	-7419
▁setpost	-7420
▁settool	-7421
heartbeat	-7422
▁getdepen	-7423
▁getvalid	-7424
▁mcurrent	-7425
▁setframe	-7426
multiplier	-7427
▁formatted	-7428
coefficient	-7429
▁getrequired	-7430
▁cachecontrol	-7431
▁listiterator	-7432
nto	-7433
1123	-7434
erse	-7435
ourl	-7436
tero	-7437
propa	-7438
itemid	-7439
▁edges	-7440
▁minor	-7441
▁patch	-7442
▁paths	-7443
▁sends	-7444
ardware	-7445
▁getnot	-7446
▁proper	-7447
creative	-7448
indexing	-7449
shipping	-7450
▁handles	-7451
▁tobytes	-7452
collision	-7453
mandatory	-7454
▁qualified	-7455
▁setreturn	-7456
▁uicomponent	-7457
▁gettransform	-7458
▁setnamespace	-7459
▁clientrequestid	-7460
ks	-7461
▁va	-7462
pref	-7463
ically	-7464
latlng	-7465
vidual	-7466
▁beans	-7467
▁whose	-7468
updates	-7469
windows	-7470
software	-7471
▁beginmap	-7472
▁strategy	-7473
doperation	-7474
disposition	-7475
▁checkpoint	-7476
▁getprevious	-7477
▁setquantity	-7478
▁relationship	-7479
▁setcomponent	-7480
ameterizedtype	-7481
ddl	-7482
oll	-7483
inks	-7484
refs	-7485
todo	-7486
urses	-7487
▁ping	-7488
mantis	-7489
nology	-7490
notify	-7491
scaped	-7492
▁board	-7493
indexof	-7494
▁author	-7495
▁sizeof	-7496
▁setlong	-7497
▁stopped	-7498
▁getsuper	-7499
▁setprice	-7500
▁countdown	-7501
▁setsubmit	-7502
attachments	-7503
▁gettooltip	-7504
ffectivedate	-7505
requirements	-7506
resourcebundle	-7507
▁isinfoenabled	-7508
▁serialization	-7509
▁mutablecounter	-7510
▁withdescription	-7511
vie	-7512
ancy	-7513
ersey	-7514
▁clob	-7515
dentry	-7516
ighest	-7517
▁sleep	-7518
▁canvas	-7519
callable	-7520
▁elapsed	-7521
▁readall	-7522
fileentry	-7523
framework	-7524
▁manifest	-7525
▁solution	-7526
filefilter	-7527
protection	-7528
▁annotated	-7529
▁webelement	-7530
statechanged	-7531
▁assertissue	-7532
▁writestring	-7533
projectsentry	-7534
▁getsupported	-7535
▁stextfactory	-7536
bel	-7537
own	-7538
vict	-7539
arrow	-7540
marsh	-7541
minor	-7542
subcat	-7543
▁train	-7544
toffset	-7545
▁cttext	-7546
▁health	-7547
▁kernel	-7548
▁getmedi	-7549
▁working	-7550
▁bindings	-7551
▁immediate	-7552
▁workspace	-7553
▁getnormali	-7554
▁getprivate	-7555
▁parselogin	-7556
▁setupclass	-7557
cub	-7558
flt	-7559
▁cs	-7560
ield	-7561
leet	-7562
tram	-7563
digit	-7564
▁dead	-7565
▁gson	-7566
▁isse	-7567
▁saml	-7568
▁sure	-7569
▁well	-7570
▁xmle	-7571
▁against	-7572
scrolling	-7573
▁getparam	-7574
▁mbeanserver	-7575
securitygroup	-7576
▁mockresponse	-7577
▁xcontenttype	-7578
sti	-7579
dong	-7580
fort	-7581
onal	-7582
cards	-7583
▁getq	-7584
prompt	-7585
▁fault	-7586
ificant	-7587
▁strict	-7588
released	-7589
▁spacing	-7590
anonymous	-7591
multipart	-7592
▁griddata	-7593
▁subclass	-7594
▁getdetail	-7595
▁hierarchy	-7596
▁sessionid	-7597
▁setobject	-7598
correlation	-7599
clicktowidget	-7600
▁getobjecttype	-7601
csv	-7602
ctx	-7603
ello	-7604
facet	-7605
▁days	-7606
▁cases	-7607
▁getws	-7608
▁recor	-7609
▁sound	-7610
settype	-7611
▁getind	-7612
▁setlin	-7613
ragments	-7614
tributor	-7615
typecode	-7616
▁acquire	-7617
▁getlang	-7618
▁grantee	-7619
▁setfont	-7620
artifacts	-7621
▁computes	-7622
▁identify	-7623
▁createdate	-7624
defaultvalue	-7625
▁setpriority	-7626
▁findchildren	-7627
▁setdefaultvalue	-7628
000	-7629
axi	-7630
▁dc	-7631
aran	-7632
ipul	-7633
vals	-7634
vcms	-7635
▁htt	-7636
▁rec	-7637
asize	-7638
tsame	-7639
unpack	-7640
buckets	-7641
▁unbind	-7642
intarray	-7643
packages	-7644
plicable	-7645
waittime	-7646
▁reading	-7647
▁setmode	-7648
▁getphone	-7649
▁getwrite	-7650
▁vertical	-7651
ttleendian	-7652
trashversion	-7653
▁aggregation	-7654
▁getalgorithm	-7655
filedescriptor	-7656
▁getcertificate	-7657
eai	-7658
choo	-7659
mial	-7660
prog	-7661
soap	-7662
tape	-7663
filem	-7664
large	-7665
tific	-7666
▁deep	-7667
▁etag	-7668
▁seek	-7669
▁stub	-7670
defaul	-7671
▁alarm	-7672
▁major	-7673
▁taskid	-7674
loglevel	-7675
solution	-7676
▁promise	-7677
firstname	-7678
jsonarray	-7679
▁getspeci	-7680
▁intvalue	-7681
▁getrefresh	-7682
▁readfields	-7683
▁sethostname	-7684
wal	-7685
west	-7686
▁asn	-7687
▁cyc	-7688
▁est	-7689
▁oid	-7690
ntial	-7691
lected	-7692
pooled	-7693
scache	-7694
torder	-7695
▁delta	-7696
▁ideal	-7697
▁those	-7698
▁touch	-7699
braries	-7700
finance	-7701
▁broker	-7702
▁lineto	-7703
▁states	-7704
wildcard	-7705
▁formats	-7706
temporary	-7707
▁campaign	-7708
▁clientid	-7709
▁indented	-7710
▁purchase	-7711
▁getclassi	-7712
▁persisted	-7713
differences	-7714
clicklistener	-7715
▁hsqlexception	-7716
▁teardownclass	-7717
▁initialization	-7718
ju	-7719
vpc	-7720
some	-7721
stax	-7722
▁ctx	-7723
▁dom	-7724
▁gmt	-7725
▁poo	-7726
▁vel	-7727
calls	-7728
sused	-7729
▁ison	-7730
encode	-7731
nowait	-7732
billing	-7733
consist	-7734
drawing	-7735
protein	-7736
ritical	-7737
▁isname	-7738
▁msisdn	-7739
▁shards	-7740
utorials	-7741
▁setsort	-7742
ncryption	-7743
stemplate	-7744
▁createre	-7745
▁resolved	-7746
characters	-7747
▁setscreen	-7748
▁settransi	-7749
negotiation	-7750
transitions	-7751
▁continuous	-7752
▁getprecision	-7753
▁resourceloader	-7754
cos	-7755
bble	-7756
cial	-7757
hide	-7758
lugin	-7759
▁gzip	-7760
liance	-7761
▁dirty	-7762
▁quick	-7763
average	-7764
animator	-7765
filtered	-7766
nametype	-7767
notequal	-7768
▁getchar	-7769
assertion	-7770
knowledge	-7771
lowercase	-7772
foreground	-7773
▁documents	-7774
ventsupport	-7775
▁createfrom	-7776
▁getartifact	-7777
outtransition	-7778
▁setstarttime	-7779
documentlibrary	-7780
ats	-7781
ptr	-7782
ssu	-7783
tone	-7784
▁haw	-7785
▁four	-7786
latile	-7787
reduce	-7788
redund	-7789
▁geton	-7790
▁getset	-7791
▁millis	-7792
assigned	-7793
▁encoder	-7794
▁scanner	-7795
▁startup	-7796
queuesize	-7797
ullparser	-7798
▁employee	-7799
▁entryset	-7800
changerate	-7801
configurer	-7802
suggestion	-7803
▁connector	-7804
▁requestid	-7805
▁setdeleted	-7806
▁xaresource	-7807
▁getnexttoken	-7808
accessidentity	-7809
▁sparklauncher	-7810
▁ctextensionlist	-7811
ito	-7812
▁ou	-7813
buil	-7814
terr	-7815
▁vpc	-7816
eting	-7817
withe	-7818
▁team	-7819
legend	-7820
sister	-7821
acluster	-7822
compiler	-7823
napshots	-7824
▁produce	-7825
▁currente	-7826
▁authority	-7827
▁including	-7828
▁sortedmap	-7829
▁teststate	-7830
confirmation	-7831
▁unsupported	-7832
▁conversation	-7833
0_	-7834
ipv	-7835
hown	-7836
loge	-7837
▁fps	-7838
steps	-7839
▁tail	-7840
review	-7841
▁mview	-7842
▁scene	-7843
▁builds	-7844
▁getweb	-7845
▁tokens	-7846
ocabulary	-7847
▁readable	-7848
▁displayed	-7849
▁setignore	-7850
▁createfile	-7851
▁transitory	-7852
▁getdatetime	-7853
▁setmetadata	-7854
responsecache	-7855
▁getomelement	-7856
▁synchronized	-7857
attributevalue	-7858
sequencenumber	-7859
▁setattributes	-7860
dc	-7861
gp	-7862
gs	-7863
amt	-7864
vpn	-7865
▁fit	-7866
▁pick	-7867
proces	-7868
▁getcla	-7869
▁gradle	-7870
datanode	-7871
determin	-7872
pirydate	-7873
▁getbill	-7874
▁summary	-7875
anisation	-7876
decorator	-7877
▁criteria	-7878
▁zzunpack	-7879
positories	-7880
▁converted	-7881
▁getdelete	-7882
▁getschema	-7883
▁getpattern	-7884
▁previously	-7885
▁readunsigned	-7886
▁contentlength	-7887
▁executionflow	-7888
▁intkeyhashmap	-7889
▁servicetracker	-7890
neg	-7891
modu	-7892
ouch	-7893
▁bad	-7894
▁cpu	-7895
axiom	-7896
keyid	-7897
unked	-7898
▁maps	-7899
▁await	-7900
▁seque	-7901
▁slice	-7902
mobject	-7903
▁getorg	-7904
sibility	-7905
▁capture	-7906
▁epsilon	-7907
▁itemset	-7908
▁numbers	-7909
▁upgrade	-7910
▁ispublic	-7911
▁positive	-7912
▁multicast	-7913
addresstype	-7914
textobjects	-7915
▁messagedigest	-7916
ddmtemplatelink	-7917
▁registerprefix	-7918
cyc	-7919
kew	-7920
oned	-7921
udfron	-7922
▁custo	-7923
▁valor	-7924
formats	-7925
isabled	-7926
▁getsty	-7927
▁setclo	-7928
▁setmap	-7929
keyvalue	-7930
▁hasmore	-7931
▁inverse	-7932
▁compress	-7933
▁frequency	-7934
▁getbuffer	-7935
▁addmessage	-7936
▁getupdated	-7937
▁gettreenode	-7938
▁setworkflow	-7939
udfrontorigin	-7940
parametergroup	-7941
▁restoperation	-7942
1<	-7943
conn	-7944
lism	-7945
vault	-7946
▁hook	-7947
andate	-7948
aspect	-7949
author	-7950
byuuid	-7951
opened	-7952
e	-7953
▁	-7954
o	-7955
c	-7956
n	-7957
s	-7958
t	-7959
d	-7960
_	-7961
l	-7962
i	-7963
p	-7964
a	-7965
r	-7966
m	-7967
g	-7968
u	-7969
v	-7970
f	-7971
h	-7972
b	-7973
y	-7974
.	-7975
w	-7976
x	-7977
k	-7978
j	-7979
>	-7980
<	-7981
q	-7982
z	-7983
,	-7984
[	-7985
]	-7986
2	-7987
1	-7988
'	-7989
0	-7990
?	-7991
-	-7992
3	-7993
4	-7994
`	-7995
